{
  "version": "1.0",
  "truncation": null,
  "padding": null,
  "added_tokens": [
    {
      "id": 0,
      "content": "<pad>",
      "single_word": false,
      "lstrip": false,
      "rstrip": false,
      "normalized": false,
      "special": true
    },
    {
      "id": 1,
      "content": "<st>",
      "single_word": false,
      "lstrip": false,
      "rstrip": false,
      "normalized": false,
      "special": true
    },
    {
      "id": 2,
      "content": "<end>",
      "single_word": false,
      "lstrip": false,
      "rstrip": false,
      "normalized": false,
      "special": true
    },
    {
      "id": 3,
      "content": "<unk>",
      "single_word": false,
      "lstrip": false,
      "rstrip": false,
      "normalized": false,
      "special": true
    }
  ],
  "normalizer": null,
  "pre_tokenizer": {
    "type": "Whitespace"
  },
  "post_processor": null,
  "decoder": null,
  "model": {
    "type": "BPE",
    "dropout": null,
    "unk_token": null,
    "continuing_subword_prefix": null,
    "end_of_word_suffix": null,
    "fuse_unk": false,
    "byte_fallback": false,
    "ignore_merges": false,
    "vocab": {
      "<pad>": 0,
      "<st>": 1,
      "<end>": 2,
      "<unk>": 3,
      "!": 4,
      "\"": 5,
      "#": 6,
      "$": 7,
      "%": 8,
      "&": 9,
      "'": 10,
      "(": 11,
      ")": 12,
      ",": 13,
      "-": 14,
      ".": 15,
      "/": 16,
      "0": 17,
      "1": 18,
      "2": 19,
      "3": 20,
      "4": 21,
      "5": 22,
      "6": 23,
      "7": 24,
      "8": 25,
      "9": 26,
      ":": 27,
      ";": 28,
      "?": 29,
      "@": 30,
      "a": 31,
      "b": 32,
      "c": 33,
      "d": 34,
      "e": 35,
      "f": 36,
      "g": 37,
      "h": 38,
      "i": 39,
      "j": 40,
      "k": 41,
      "l": 42,
      "m": 43,
      "n": 44,
      "o": 45,
      "p": 46,
      "q": 47,
      "r": 48,
      "s": 49,
      "t": 50,
      "u": 51,
      "v": 52,
      "w": 53,
      "x": 54,
      "y": 55,
      "z": 56,
      "à": 57,
      "ê": 58,
      "he": 59,
      "in": 60,
      "an": 61,
      "the": 62,
      "re": 63,
      "ou": 64,
      "on": 65,
      "er": 66,
      "th": 67,
      "en": 68,
      "at": 69,
      "to": 70,
      "is": 71,
      "as": 72,
      "ed": 73,
      "of": 74,
      "ing": 75,
      "and": 76,
      "be": 77,
      "ar": 78,
      "it": 79,
      "or": 80,
      "ha": 81,
      "ll": 82,
      "le": 83,
      "no": 84,
      "her": 85,
      "st": 86,
      "se": 87,
      "om": 88,
      "wi": 89,
      "you": 90,
      "ly": 91,
      "ch": 92,
      "ce": 93,
      "li": 94,
      "ion": 95,
      "ve": 96,
      "was": 97,
      "hi": 98,
      "ent": 99,
      "she": 100,
      "for": 101,
      "ver": 102,
      "de": 103,
      "ld": 104,
      "not": 105,
      "that": 106,
      "ne": 107,
      "gh": 108,
      "we": 109,
      "ut": 110,
      "ct": 111,
      "me": 112,
      "su": 113,
      "al": 114,
      "with": 115,
      "ter": 116,
      "his": 117,
      "ther": 118,
      "ould": 119,
      "all": 120,
      "ay": 121,
      "ss": 122,
      "had": 123,
      "ir": 124,
      "mr": 125,
      "wh": 126,
      "ad": 127,
      "id": 128,
      "so": 129,
      "ro": 130,
      "but": 131,
      "ri": 132,
      "con": 133,
      "fe": 134,
      ".\"": 135,
      "ab": 136,
      "ag": 137,
      "pe": 138,
      "him": 139,
      "un": 140,
      "have": 141,
      "am": 142,
      "ow": 143,
      "mo": 144,
      "my": 145,
      "ght": 146,
      "our": 147,
      "very": 148,
      "ain": 149,
      "liz": 150,
      "es": 151,
      "ation": 152,
      "po": 153,
      "com": 154,
      "by": 155,
      "--": 156,
      "mu": 157,
      "are": 158,
      "eliz": 159,
      "eliza": 160,
      "ti": 161,
      "one": 162,
      "whi": 163,
      "qu": 164,
      "sa": 165,
      "beth": 166,
      "elizabeth": 167,
      "lf": 168,
      "ex": 169,
      "ke": 170,
      "lo": 171,
      "now": 172,
      "they": 173,
      "were": 174,
      "any": 175,
      "if": 176,
      "per": 177,
      "te": 178,
      "fr": 179,
      "ac": 180,
      "whe": 181,
      "ard": 182,
      "which": 183,
      "ur": 184,
      "ment": 185,
      "do": 186,
      "self": 187,
      "will": 188,
      "your": 189,
      "pre": 190,
      "end": 191,
      "co": 192,
      "what": 193,
      "could": 194,
      "been": 195,
      "pro": 196,
      "from": 197,
      "able": 198,
      "this": 199,
      "cy": 200,
      "ance": 201,
      "dis": 202,
      "would": 203,
      "them": 204,
      "ome": 205,
      "out": 206,
      "thing": 207,
      "par": 208,
      "who": 209,
      "their": 210,
      "red": 211,
      "go": 212,
      "im": 213,
      "there": 214,
      "ine": 215,
      "mis": 216,
      "od": 217,
      "dar": 218,
      "fo": 219,
      "ho": 220,
      "si": 221,
      "darcy": 222,
      "af": 223,
      ",\"": 224,
      "ca": 225,
      "us": 226,
      "ate": 227,
      "thou": 228,
      "ant": 229,
      "said": 230,
      "know": 231,
      "such": 232,
      "some": 233,
      "ul": 234,
      "ind": 235,
      "ma": 236,
      "ge": 237,
      "man": 238,
      "ity": 239,
      "ong": 240,
      "when": 241,
      "hap": 242,
      "ley": 243,
      "sis": 244,
      "mi": 245,
      "ect": 246,
      "oun": 247,
      "fa": 248,
      "ved": 249,
      "ben": 250,
      "ple": 251,
      "sh": 252,
      "way": 253,
      "other": 254,
      "fi": 255,
      "net": 256,
      "itt": 257,
      "lad": 258,
      "pr": 259,
      "mrs": 260,
      "vi": 261,
      "can": 262,
      "than": 263,
      "tr": 264,
      "see": 265,
      "bennet": 266,
      "more": 267,
      "ast": 268,
      "much": 269,
      "ck": 270,
      "ous": 271,
      "miss": 272,
      "mar": 273,
      "ap": 274,
      "must": 275,
      "di": 276,
      "bing": 277,
      "ence": 278,
      "ane": 279,
      "fore": 280,
      "bingley": 281,
      "ok": 282,
      "ive": 283,
      "wor": 284,
      "ject": 285,
      "ure": 286,
      "age": 287,
      "sister": 288,
      "own": 289,
      "jane": 290,
      "every": 291,
      "ci": 292,
      "pl": 293,
      "et": 294,
      "ven": 295,
      "ction": 296,
      "did": 297,
      "gre": 298,
      "ally": 299,
      "long": 300,
      "up": 301,
      "el": 302,
      "ink": 303,
      "most": 304,
      "time": 305,
      "cer": 306,
      "ving": 307,
      "should": 308,
      "day": 309,
      "ak": 310,
      "has": 311,
      "ten": 312,
      "spe": 313,
      "never": 314,
      "well": 315,
      "coll": 316,
      "ily": 317,
      "wis": 318,
      "au": 319,
      "med": 320,
      "how": 321,
      "alk": 322,
      "ble": 323,
      "ser": 324,
      "after": 325,
      "?\"": 326,
      "think": 327,
      "ber": 328,
      "ob": 329,
      "ite": 330,
      "happ": 331,
      "pleas": 332,
      "der": 333,
      "ort": 334,
      "lady": 335,
      "soon": 336,
      "before": 337,
      "again": 338,
      "int": 339,
      "only": 340,
      "tter": 341,
      "att": 342,
      "herself": 343,
      "though": 344,
      "ins": 345,
      "char": 346,
      "gr": 347,
      "pt": 348,
      "urn": 349,
      "led": 350,
      "est": 351,
      "sha": 352,
      "tain": 353,
      "good": 354,
      "may": 355,
      "say": 356,
      "ner": 357,
      "sent": 358,
      "ham": 359,
      "sp": 360,
      "use": 361,
      "might": 362,
      "fri": 363,
      "turn": 364,
      "wick": 365,
      "hed": 366,
      "pli": 367,
      "cas": 368,
      "ren": 369,
      "wickham": 370,
      "op": 371,
      "lu": 372,
      "part": 373,
      "ound": 374,
      "ittle": 375,
      "little": 376,
      ".--": 377,
      "ju": 378,
      "pos": 379,
      "ree": 380,
      "ness": 381,
      "friend": 382,
      "ried": 383,
      "act": 384,
      "lie": 385,
      "look": 386,
      "great": 387,
      "bour": 388,
      "ill": 389,
      "ans": 390,
      "nothing": 391,
      "like": 392,
      "collins": 393,
      "without": 394,
      "then": 395,
      "being": 396,
      "youn": 397,
      "fort": 398,
      "sure": 399,
      "ings": 400,
      "fam": 401,
      "gard": 402,
      "ies": 403,
      "lydi": 404,
      "feel": 405,
      "lydia": 406,
      "ever": 407,
      "sc": 408,
      "make": 409,
      "fir": 410,
      "ach": 411,
      "bo": 412,
      "ough": 413,
      "augh": 414,
      "its": 415,
      "less": 416,
      "shall": 417,
      "even": 418,
      "read": 419,
      "ated": 420,
      "ward": 421,
      "form": 422,
      "ry": 423,
      "hear": 424,
      "dear": 425,
      "room": 426,
      "young": 427,
      "ced": 428,
      "add": 429,
      "belie": 430,
      "wo": 431,
      "hope": 432,
      "family": 433,
      "ave": 434,
      "over": 435,
      "ions": 436,
      "ful": 437,
      "ary": 438,
      "gi": 439,
      "um": 440,
      "cl": 441,
      "shi": 442,
      "give": 443,
      "into": 444,
      "thought": 445,
      "first": 446,
      "lt": 447,
      "ass": 448,
      "sat": 449,
      "iness": 450,
      "too": 451,
      "new": 452,
      "fect": 453,
      "certain": 454,
      "manner": 455,
      "come": 456,
      "mor": 457,
      "coun": 458,
      "sup": 459,
      "ace": 460,
      "hou": 461,
      "mother": 462,
      "press": 463,
      "father": 464,
      "house": 465,
      "ear": 466,
      "aughter": 467,
      "two": 468,
      "wever": 469,
      "however": 470,
      "daughter": 471,
      "ise": 472,
      "letter": 473,
      "about": 474,
      "rece": 475,
      "str": 476,
      "eng": 477,
      "made": 478,
      "port": 479,
      "walk": 480,
      "br": 481,
      "yes": 482,
      "light": 483,
      "pect": 484,
      "himself": 485,
      "last": 486,
      "therine": 487,
      "ssi": 488,
      "feren": 489,
      "catherine": 490,
      "sur": 491,
      "ic": 492,
      "ish": 493,
      "off": 494,
      "possi": 495,
      "ways": 496,
      "plied": 497,
      "jo": 498,
      "parti": 499,
      "cour": 500,
      "many": 501,
      "ted": 502,
      "inde": 503,
      "away": 504,
      "ond": 505,
      "always": 506,
      "aw": 507,
      "beg": 508,
      "cont": 509,
      "ious": 510,
      "ning": 511,
      "tt": 512,
      "reas": 513,
      "under": 514,
      "appe": 515,
      "cle": 516,
      "cul": 517,
      "sen": 518,
      "sub": 519,
      "where": 520,
      "cannot": 521,
      "just": 522,
      "pass": 523,
      "son": 524,
      "sol": 525,
      "il": 526,
      "vo": 527,
      "cess": 528,
      "wish": 529,
      "attent": 530,
      "gn": 531,
      "vis": 532,
      "iner": 533,
      "return": 534,
      "talk": 535,
      "ations": 536,
      "gent": 537,
      "ither": 538,
      "pri": 539,
      "riage": 540,
      "comm": 541,
      "ared": 542,
      "expect": 543,
      "ined": 544,
      "came": 545,
      "ress": 546,
      "tell": 547,
      "dist": 548,
      "enough": 549,
      "kind": 550,
      "ni": 551,
      "work": 552,
      "du": 553,
      "oc": 554,
      "pleasure": 555,
      "lic": 556,
      "unt": 557,
      "gu": 558,
      "ta": 559,
      "replied": 560,
      "ener": 561,
      "felt": 562,
      "agree": 563,
      "saw": 564,
      "speak": 565,
      "gardiner": 566,
      "wards": 567,
      "found": 568,
      "lly": 569,
      "side": 570,
      "spect": 571,
      "!\"": 572,
      "ked": 573,
      "rest": 574,
      "uten": 575,
      "love": 576,
      "tem": 577,
      "possible": 578,
      "ged": 579,
      "dea": 580,
      "express": 581,
      "acqu": 582,
      "present": 583,
      "eld": 584,
      "guten": 585,
      "sir": 586,
      "vour": 587,
      "often": 588,
      "berg": 589,
      "gutenberg": 590,
      "term": 591,
      "point": 592,
      "vil": 593,
      "far": 594,
      "wr": 595,
      "zy": 596,
      "lizzy": 597,
      "bro": 598,
      "mer": 599,
      "myself": 600,
      "pose": 601,
      "tru": 602,
      "happy": 603,
      "indeed": 604,
      "subject": 605,
      "car": 606,
      "ived": 607,
      "oh": 608,
      "till": 609,
      "quite": 610,
      "done": 611,
      "gener": 612,
      "having": 613,
      "ended": 614,
      "ody": 615,
      "ately": 616,
      "ice": 617,
      "rel": 618,
      "ought": 619,
      "gentle": 620,
      "body": 621,
      "mat": 622,
      "vent": 623,
      "better": 624,
      "cons": 625,
      "cried": 626,
      "ef": 627,
      "wn": 628,
      "acquain": 629,
      "ose": 630,
      "heard": 631,
      "right": 632,
      "lot": 633,
      "really": 634,
      "project": 635,
      "cause": 636,
      "believe": 637,
      "une": 638,
      "ifferen": 639,
      "place": 640,
      "longbour": 641,
      "object": 642,
      "feelings": 643,
      "take": 644,
      "longbourn": 645,
      "call": 646,
      "fection": 647,
      "exce": 648,
      "does": 649,
      "col": 650,
      "ep": 651,
      "nor": 652,
      "want": 653,
      "inter": 654,
      "charlot": 655,
      "charlotte": 656,
      "aunt": 657,
      "iam": 658,
      "ince": 659,
      "whom": 660,
      "comp": 661,
      "william": 662,
      "satis": 663,
      "reason": 664,
      "hand": 665,
      "king": 666,
      "mon": 667,
      "mom": 668,
      "tak": 669,
      "vant": 670,
      "wom": 671,
      "went": 672,
      "itu": 673,
      "ford": 674,
      "vers": 675,
      "lucas": 676,
      "moment": 677,
      "gir": 678,
      "mber": 679,
      "affection": 680,
      "medi": 681,
      "particul": 682,
      "brother": 683,
      "girl": 684,
      "particular": 685,
      "aid": 686,
      "sto": 687,
      "requ": 688,
      "llow": 689,
      "while": 690,
      "down": 691,
      "ess": 692,
      "let": 693,
      "ably": 694,
      "stand": 695,
      "word": 696,
      "tance": 697,
      "inu": 698,
      "ref": 699,
      "ited": 700,
      "whole": 701,
      "morning": 702,
      "since": 703,
      "xt": 704,
      "here": 705,
      "ised": 706,
      "seen": 707,
      "ider": 708,
      "field": 709,
      "val": 710,
      "perhap": 711,
      "looked": 712,
      "shire": 713,
      "continu": 714,
      "appear": 715,
      "consider": 716,
      "perhaps": 717,
      "din": 718,
      "eas": 719,
      "nat": 720,
      "ton": 721,
      "sisters": 722,
      "immedi": 723,
      "therefore": 724,
      "civil": 725,
      "ety": 726,
      "opin": 727,
      "ame": 728,
      "mind": 729,
      "twe": 730,
      "inst": 731,
      "ened": 732,
      "half": 733,
      "still": 734,
      "delight": 735,
      "get": 736,
      "ladies": 737,
      "upon": 738,
      "happiness": 739,
      "evening": 740,
      "fu": 741,
      "find": 742,
      "men": 743,
      "ty": 744,
      "wer": 745,
      "yet": 746,
      "these": 747,
      "toge": 748,
      "chi": 749,
      "nether": 750,
      "something": 751,
      "together": 752,
      "netherfield": 753,
      "ft": 754,
      "next": 755,
      "few": 756,
      "uncle": 757,
      "ments": 758,
      "itty": 759,
      "charact": 760,
      "grat": 761,
      "answer": 762,
      "both": 763,
      "certainly": 764,
      "surpr": 765,
      "character": 766,
      "kitty": 767,
      "spo": 768,
      "told": 769,
      "ition": 770,
      "ves": 771,
      "allow": 772,
      "follow": 773,
      "added": 774,
      "inc": 775,
      "try": 776,
      "attention": 777,
      "dou": 778,
      "smi": 779,
      "rely": 780,
      "towards": 781,
      "same": 782,
      "prob": 783,
      "obser": 784,
      "ently": 785,
      "concer": 786,
      "person": 787,
      "world": 788,
      "posed": 789,
      "occas": 790,
      "!--": 791,
      "em": 792,
      "home": 793,
      "marriage": 794,
      "opinion": 795,
      "doub": 796,
      "hur": 797,
      "ra": 798,
      "tm": 799,
      "year": 800,
      "ang": 801,
      "respect": 802,
      "town": 803,
      "left": 804,
      "sett": 805,
      "convers": 806,
      "coming": 807,
      "perfect": 808,
      "seemed": 809,
      "ship": 810,
      "received": 811,
      "each": 812,
      "hour": 813,
      "ished": 814,
      "onel": 815,
      "mention": 816,
      "known": 817,
      "favour": 818,
      "marry": 819,
      "course": 820,
      "colonel": 821,
      "woman": 822,
      "gone": 823,
      "three": 824,
      "least": 825,
      "leave": 826,
      "sil": 827,
      "tempt": 828,
      "cir": 829,
      "chap": 830,
      "either": 831,
      "resol": 832,
      "beha": 833,
      "because": 834,
      "betwe": 835,
      "acquaintance": 836,
      "between": 837,
      "air": 838,
      "hon": 839,
      "desi": 840,
      "cu": 841,
      "den": 842,
      "hard": 843,
      "ol": 844,
      "pur": 845,
      "almost": 846,
      "qui": 847,
      "dire": 848,
      "passed": 849,
      "night": 850,
      "immediately": 851,
      "conversation": 852,
      "chapter": 853,
      "cous": 854,
      "inv": 855,
      "means": 856,
      "ack": 857,
      "ances": 858,
      "married": 859,
      "ifferent": 860,
      "occasion": 861,
      "ele": 862,
      "knew": 863,
      "those": 864,
      "mean": 865,
      "comfort": 866,
      "whose": 867,
      "seeing": 868,
      "ctions": 869,
      "collect": 870,
      "given": 871,
      "began": 872,
      "agreeable": 873,
      "ied": 874,
      "lond": 875,
      "once": 876,
      "life": 877,
      "meet": 878,
      "conne": 879,
      "prom": 880,
      "party": 881,
      "visit": 882,
      "london": 883,
      "bl": 884,
      "cre": 885,
      "min": 886,
      "won": 887,
      "yton": 888,
      "another": 889,
      "ower": 890,
      "ained": 891,
      "going": 892,
      "ility": 893,
      "pride": 894,
      "meryton": 895,
      "concern": 896,
      "hes": 897,
      "rep": 898,
      "regard": 899,
      "cept": 900,
      "short": 901,
      "times": 902,
      "general": 903,
      "band": 904,
      "cor": 905,
      "gave": 906,
      "inte": 907,
      "took": 908,
      "ingly": 909,
      "aged": 910,
      "knowled": 911,
      "others": 912,
      "viour": 913,
      "friends": 914,
      "understand": 915,
      "taken": 916,
      "rather": 917,
      "behaviour": 918,
      "hus": 919,
      "pat": 920,
      "ts": 921,
      "ud": 922,
      "reme": 923,
      "offi": 924,
      "itation": 925,
      "ute": 926,
      "why": 927,
      "quest": 928,
      "whether": 929,
      "tra": 930,
      "husband": 931,
      "ks": 932,
      "ople": 933,
      "pain": 934,
      "power": 935,
      "rem": 936,
      "advant": 937,
      "row": 938,
      "pember": 939,
      "people": 940,
      "used": 941,
      "against": 942,
      "fortune": 943,
      "honour": 944,
      "pemberley": 945,
      "dr": 946,
      "equ": 947,
      "lat": 948,
      "ps": 949,
      "ange": 950,
      "arm": 951,
      "live": 952,
      "determ": 953,
      "necess": 954,
      "ros": 955,
      "persu": 956,
      "continued": 957,
      "interest": 958,
      "bre": 959,
      "cum": 960,
      "eyes": 961,
      "igh": 962,
      "vid": 963,
      "ating": 964,
      "les": 965,
      "neigh": 966,
      "wee": 967,
      "accept": 968,
      "obli": 969,
      "spir": 970,
      "sense": 971,
      "anger": 972,
      "settled": 973,
      "neighbour": 974,
      "fer": 975,
      "rough": 976,
      "hen": 977,
      "arri": 978,
      "stay": 979,
      "sequ": 980,
      "yourself": 981,
      "fair": 982,
      "fied": 983,
      "scar": 984,
      "book": 985,
      "daughters": 986,
      "circum": 987,
      "idea": 988,
      "lis": 989,
      "through": 990,
      "near": 991,
      "suf": 992,
      "ready": 993,
      "former": 994,
      "perfectly": 995,
      "cousin": 996,
      ";--": 997,
      "care": 998,
      "cur": 999,
      "ster": 1000,
      "accoun": 1001,
      "suppose": 1002,
      "gentleman": 1003,
      "rosings": 1004,
      "bus": 1005,
      "back": 1006,
      "inform": 1007,
      "anx": 1008,
      "bea": 1009,
      "wife": 1010,
      "adm": 1011,
      "compli": 1012,
      "play": 1013,
      "else": 1014,
      "circumst": 1015,
      "che": 1016,
      "hum": 1017,
      "lves": 1018,
      "repe": 1019,
      "tor": 1020,
      "cely": 1021,
      "high": 1022,
      "ribut": 1023,
      "consequ": 1024,
      "prehen": 1025,
      "imag": 1026,
      "antly": 1027,
      "aston": 1028,
      "heart": 1029,
      "hardly": 1030,
      "listen": 1031,
      "business": 1032,
      "beaut": 1033,
      "clo": 1034,
      "pend": 1035,
      "desc": 1036,
      "soci": 1037,
      "cop": 1038,
      "manners": 1039,
      "returned": 1040,
      "girls": 1041,
      "civility": 1042,
      "scarcely": 1043,
      "ball": 1044,
      "different": 1045,
      "fit": 1046,
      "lp": 1047,
      "pi": 1048,
      "ru": 1049,
      "table": 1050,
      "help": 1051,
      "recollect": 1052,
      "selves": 1053,
      "conv": 1054,
      "door": 1055,
      "impossible": 1056,
      "longer": 1057,
      "stru": 1058,
      "walked": 1059,
      "ishment": 1060,
      "doubt": 1061,
      "wonder": 1062,
      "ece": 1063,
      "ped": 1064,
      "phi": 1065,
      "put": 1066,
      "usu": 1067,
      "endea": 1068,
      "arr": 1069,
      "lips": 1070,
      "dest": 1071,
      "cted": 1072,
      "disap": 1073,
      "hood": 1074,
      "wise": 1075,
      "pleased": 1076,
      "turned": 1077,
      "likely": 1078,
      "country": 1079,
      "expected": 1080,
      "terms": 1081,
      "carriage": 1082,
      "called": 1083,
      "handsome": 1084,
      "spoke": 1085,
      "advantage": 1086,
      "ding": 1087,
      "iable": 1088,
      "lit": 1089,
      "situ": 1090,
      "best": 1091,
      "suc": 1092,
      "sum": 1093,
      "conf": 1094,
      "fear": 1095,
      "compl": 1096,
      "peri": 1097,
      "got": 1098,
      "import": 1099,
      "sible": 1100,
      "ladyship": 1101,
      "joy": 1102,
      "ead": 1103,
      "fast": 1104,
      "sho": 1105,
      "ting": 1106,
      "tford": 1107,
      "head": 1108,
      "oud": 1109,
      "asked": 1110,
      "hertford": 1111,
      "cho": 1112,
      "met": 1113,
      "poor": 1114,
      "ached": 1115,
      "prevent": 1116,
      "seem": 1117,
      "wished": 1118,
      "open": 1119,
      "engaged": 1120,
      "itude": 1121,
      "hertfordshire": 1122,
      "dare": 1123,
      "name": 1124,
      "wa": 1125,
      "wed": 1126,
      "inced": 1127,
      "bey": 1128,
      "iting": 1129,
      "forster": 1130,
      "keep": 1131,
      "proper": 1132,
      "mary": 1133,
      "address": 1134,
      "child": 1135,
      "draw": 1136,
      "convinced": 1137,
      "ered": 1138,
      "ign": 1139,
      "sor": 1140,
      "assure": 1141,
      "set": 1142,
      "enter": 1143,
      "within": 1144,
      "cond": 1145,
      "conce": 1146,
      "vie": 1147,
      "bourgh": 1148,
      "feeling": 1149,
      "vol": 1150,
      "talking": 1151,
      "write": 1152,
      "officer": 1153,
      "spirits": 1154,
      "four": 1155,
      "decl": 1156,
      "neither": 1157,
      "quir": 1158,
      "cap": 1159,
      "ference": 1160,
      "talked": 1161,
      "gentlemen": 1162,
      "satisfied": 1163,
      "month": 1164,
      "minut": 1165,
      "account": 1166,
      "situation": 1167,
      "view": 1168,
      "afr": 1169,
      "aim": 1170,
      "fin": 1171,
      "frequ": 1172,
      "glad": 1173,
      "ig": 1174,
      "sm": 1175,
      "sort": 1176,
      "tion": 1177,
      "zwilliam": 1178,
      "bear": 1179,
      "ceed": 1180,
      "also": 1181,
      "ager": 1182,
      "among": 1183,
      "wered": 1184,
      "serious": 1185,
      "believed": 1186,
      "strong": 1187,
      "engage": 1188,
      "brought": 1189,
      "offer": 1190,
      "matter": 1191,
      "dinner": 1192,
      "natur": 1193,
      "fully": 1194,
      "surprise": 1195,
      "years": 1196,
      "latter": 1197,
      "fitzwilliam": 1198,
      "minutes": 1199,
      "afraid": 1200,
      "cred": 1201,
      "ron": 1202,
      "rap": 1203,
      "tri": 1204,
      "incl": 1205,
      "ses": 1206,
      "entered": 1207,
      "depend": 1208,
      "amiable": 1209,
      "exc": 1210,
      "sometimes": 1211,
      "making": 1212,
      "jud": 1213,
      "claim": 1214,
      "information": 1215,
      "beyond": 1216,
      "small": 1217,
      "eager": 1218,
      "low": 1219,
      "rup": 1220,
      "ination": 1221,
      "oured": 1222,
      "formed": 1223,
      "admi": 1224,
      "rodu": 1225,
      "acknowled": 1226,
      "ending": 1227,
      "mark": 1228,
      "days": 1229,
      "introdu": 1230,
      "saying": 1231,
      "distress": 1232,
      "surprised": 1233,
      "hurst": 1234,
      "necessary": 1235,
      "usual": 1236,
      "disappoint": 1237,
      "sorry": 1238,
      ",--": 1239,
      "ai": 1240,
      "ched": 1241,
      "dan": 1242,
      "dance": 1243,
      "fine": 1244,
      "ler": 1245,
      "law": 1246,
      "sand": 1247,
      "xed": 1248,
      "eness": 1249,
      "deal": 1250,
      "affect": 1251,
      "thousand": 1252,
      "appro": 1253,
      "wishes": 1254,
      "case": 1255,
      "position": 1256,
      "answered": 1257,
      "farther": 1258,
      "particularly": 1259,
      "silence": 1260,
      "direct": 1261,
      "invitation": 1262,
      "credit": 1263,
      "az": 1264,
      "mas": 1265,
      "sence": 1266,
      "ying": 1267,
      "rew": 1268,
      "arn": 1269,
      "ities": 1270,
      "enti": 1271,
      "ution": 1272,
      "merely": 1273,
      "ext": 1274,
      "exact": 1275,
      "themselves": 1276,
      "usion": 1277,
      "five": 1278,
      "ures": 1279,
      "ounds": 1280,
      "looking": 1281,
      "news": 1282,
      "speaking": 1283,
      "appearance": 1284,
      "full": 1285,
      "design": 1286,
      "pati": 1287,
      "determined": 1288,
      "consequence": 1289,
      "philips": 1290,
      "endeavour": 1291,
      "cing": 1292,
      "fan": 1293,
      "hun": 1294,
      "leng": 1295,
      "real": 1296,
      "remo": 1297,
      "ask": 1298,
      "assu": 1299,
      "sted": 1300,
      "second": 1301,
      "forward": 1302,
      "deser": 1303,
      "ality": 1304,
      "acy": 1305,
      "uring": 1306,
      "whatever": 1307,
      "things": 1308,
      "vice": 1309,
      "plan": 1310,
      "afterwards": 1311,
      "charm": 1312,
      "opport": 1313,
      "appeared": 1314,
      "sensible": 1315,
      "niece": 1316,
      "works": 1317,
      "exceed": 1318,
      "society": 1319,
      "length": 1320,
      "opportun": 1321,
      "cation": 1322,
      "dif": 1323,
      "lar": 1324,
      "laugh": 1325,
      "tu": 1326,
      "attempt": 1327,
      "stre": 1328,
      "liked": 1329,
      "alone": 1330,
      "acc": 1331,
      "mission": 1332,
      "cip": 1333,
      "servant": 1334,
      "pleasant": 1335,
      "attach": 1336,
      "receive": 1337,
      "stood": 1338,
      "instantly": 1339,
      "chief": 1340,
      "resolved": 1341,
      "equal": 1342,
      "break": 1343,
      "officers": 1344,
      "master": 1345,
      "?--": 1346,
      "hor": 1347,
      "ii": 1348,
      "mone": 1349,
      "pu": 1350,
      "slight": 1351,
      "intell": 1352,
      "reat": 1353,
      "thus": 1354,
      "sever": 1355,
      "dered": 1356,
      "ney": 1357,
      "tered": 1358,
      "face": 1359,
      "itted": 1360,
      "itting": 1361,
      "prof": 1362,
      "prud": 1363,
      "thank": 1364,
      "tenance": 1365,
      "countenance": 1366,
      "bring": 1367,
      "courage": 1368,
      "visi": 1369,
      "distribut": 1370,
      "kindness": 1371,
      "except": 1372,
      "compan": 1373,
      "words": 1374,
      "elect": 1375,
      "neighbourhood": 1376,
      "arrival": 1377,
      "admir": 1378,
      "compliment": 1379,
      "repeated": 1380,
      "astonishment": 1381,
      "exactly": 1382,
      "opportunity": 1383,
      "money": 1384,
      "bright": 1385,
      "cal": 1386,
      "ph": 1387,
      "inti": 1388,
      "resent": 1389,
      "recomm": 1390,
      "enquir": 1391,
      "toler": 1392,
      "arch": 1393,
      "state": 1394,
      "already": 1395,
      "abo": 1396,
      "ages": 1397,
      "lost": 1398,
      "fici": 1399,
      "worth": 1400,
      "plain": 1401,
      "grace": 1402,
      "luck": 1403,
      "younger": 1404,
      "joined": 1405,
      "foundation": 1406,
      "valu": 1407,
      "increas": 1408,
      "smile": 1409,
      "curi": 1410,
      "reply": 1411,
      "week": 1412,
      "obliged": 1413,
      "ronic": 1414,
      "electronic": 1415,
      "don": 1416,
      "ight": 1417,
      "iety": 1418,
      "ured": 1419,
      "van": 1420,
      "ates": 1421,
      "ising": 1422,
      "assis": 1423,
      "learn": 1424,
      "need": 1425,
      "nest": 1426,
      "meant": 1427,
      "sole": 1428,
      "sign": 1429,
      "giving": 1430,
      "early": 1431,
      "earnest": 1432,
      "attentions": 1433,
      "ifference": 1434,
      "satisfa": 1435,
      "refle": 1436,
      "easily": 1437,
      "mentioned": 1438,
      "utely": 1439,
      "anxious": 1440,
      "circumstances": 1441,
      "highly": 1442,
      "assured": 1443,
      "intim": 1444,
      "bility": 1445,
      "during": 1446,
      "event": 1447,
      "ken": 1448,
      "sing": 1449,
      "ual": 1450,
      "wat": 1451,
      "assur": 1452,
      "stair": 1453,
      "libr": 1454,
      "aded": 1455,
      "ross": 1456,
      "condu": 1457,
      "ability": 1458,
      "absence": 1459,
      "ified": 1460,
      "impro": 1461,
      "knowing": 1462,
      "pra": 1463,
      "prin": 1464,
      "void": 1465,
      "truth": 1466,
      "interrup": 1467,
      "company": 1468,
      "allowed": 1469,
      "observed": 1470,
      "hours": 1471,
      "question": 1472,
      "imagine": 1473,
      "beauty": 1474,
      "success": 1475,
      "importance": 1476,
      "affected": 1477,
      "exceedingly": 1478,
      "attachment": 1479,
      "breakfast": 1480,
      "satisfaction": 1481,
      "library": 1482,
      "ded": 1483,
      "ia": 1484,
      "iving": 1485,
      "ling": 1486,
      "os": 1487,
      "pa": 1488,
      "send": 1489,
      "ually": 1490,
      "var": 1491,
      "ww": 1492,
      "enjoy": 1493,
      "sem": 1494,
      "ceived": 1495,
      "dec": 1496,
      "wel": 1497,
      "ago": 1498,
      "comple": 1499,
      "comprehen": 1500,
      "doing": 1501,
      "cold": 1502,
      "wholly": 1503,
      "pray": 1504,
      "ively": 1505,
      "fortun": 1506,
      "sche": 1507,
      "thoughts": 1508,
      "supposed": 1509,
      "walking": 1510,
      "begin": 1511,
      "tty": 1512,
      "temper": 1513,
      "expressed": 1514,
      "true": 1515,
      "following": 1516,
      "silent": 1517,
      "purpose": 1518,
      "remain": 1519,
      "copy": 1520,
      "capable": 1521,
      "ade": 1522,
      "bly": 1523,
      "dread": 1524,
      "dden": 1525,
      "gri": 1526,
      "plo": 1527,
      "paid": 1528,
      "ran": 1529,
      "sford": 1530,
      "wind": 1531,
      "regre": 1532,
      "regi": 1533,
      "thor": 1534,
      "ense": 1535,
      "change": 1536,
      "living": 1537,
      "sudden": 1538,
      "contr": 1539,
      "----": 1540,
      "quar": 1541,
      "extra": 1542,
      "pretty": 1543,
      "disco": 1544,
      "disposition": 1545,
      "miser": 1546,
      "affair": 1547,
      "attended": 1548,
      "tained": 1549,
      "spite": 1550,
      "greater": 1551,
      "join": 1552,
      "occur": 1553,
      "guard": 1554,
      "effect": 1555,
      "acquainted": 1556,
      "easy": 1557,
      "gratul": 1558,
      "followed": 1559,
      "persuaded": 1560,
      "humour": 1561,
      "children": 1562,
      "entirely": 1563,
      "fancy": 1564,
      "hunsford": 1565,
      "visitor": 1566,
      "admiration": 1567,
      "stairs": 1568,
      "conduct": 1569,
      "scheme": 1570,
      "regiment": 1571,
      "avoid": 1572,
      "bit": 1573,
      "blic": 1574,
      "cha": 1575,
      "drew": 1576,
      "gy": 1577,
      "phe": 1578,
      "pounds": 1579,
      "sion": 1580,
      "ret": 1581,
      "liber": 1582,
      "degre": 1583,
      "notice": 1584,
      "nephe": 1585,
      "susp": 1586,
      "alth": 1587,
      "unless": 1588,
      "moti": 1589,
      "byshire": 1590,
      "park": 1591,
      "using": 1592,
      "ously": 1593,
      "happened": 1594,
      "derbyshire": 1595,
      "hearing": 1596,
      "common": 1597,
      "relations": 1598,
      "match": 1599,
      "nature": 1600,
      "gratitude": 1601,
      "probably": 1602,
      "emplo": 1603,
      "remember": 1604,
      "ignor": 1605,
      "conceal": 1606,
      "frequently": 1607,
      "natural": 1608,
      "directly": 1609,
      "large": 1610,
      "public": 1611,
      "several": 1612,
      "brighton": 1613,
      "curios": 1614,
      "nephew": 1615,
      "apo": 1616,
      "bu": 1617,
      "evid": 1618,
      "pare": 1619,
      "run": 1620,
      "res": 1621,
      "relie": 1622,
      "step": 1623,
      "sess": 1624,
      "confe": 1625,
      "conside": 1626,
      "congratul": 1627,
      "peci": 1628,
      "especi": 1629,
      "sake": 1630,
      "whenever": 1631,
      "dislike": 1632,
      "impati": 1633,
      "geor": 1634,
      "proud": 1635,
      "viol": 1636,
      "trou": 1637,
      "pleasing": 1638,
      "possess": 1639,
      "fortnight": 1640,
      "aching": 1641,
      "hopes": 1642,
      "relation": 1643,
      "excell": 1644,
      "wanted": 1645,
      "delighted": 1646,
      "marrying": 1647,
      "eleg": 1648,
      "remained": 1649,
      "prevented": 1650,
      "inclination": 1651,
      "degree": 1652,
      "employ": 1653,
      "curiosity": 1654,
      "confess": 1655,
      "considered": 1656,
      "especially": 1657,
      "av": 1658,
      "ey": 1659,
      "evil": 1660,
      "jour": 1661,
      "kes": 1662,
      "pay": 1663,
      "warm": 1664,
      "inf": 1665,
      "reco": 1666,
      "ers": 1667,
      "ene": 1668,
      "neg": 1669,
      "ided": 1670,
      "absol": 1671,
      "compar": 1672,
      "arest": 1673,
      "exer": 1674,
      "willing": 1675,
      "proceed": 1676,
      "mistaken": 1677,
      "atest": 1678,
      "fixed": 1679,
      "itten": 1680,
      "eldest": 1681,
      "thinking": 1682,
      "intent": 1683,
      "intended": 1684,
      "spent": 1685,
      "posing": 1686,
      "voice": 1687,
      "agreement": 1688,
      "expression": 1689,
      "written": 1690,
      "reasonable": 1691,
      "favourite": 1692,
      "desire": 1693,
      "meeting": 1694,
      "promised": 1695,
      "descri": 1696,
      "seems": 1697,
      "drawing": 1698,
      "ailed": 1699,
      "praise": 1700,
      "grie": 1701,
      "window": 1702,
      "trouble": 1703,
      "journey": 1704,
      "bor": 1705,
      "clu": 1706,
      "dro": 1707,
      "dress": 1708,
      "fal": 1709,
      "ide": 1710,
      "lay": 1711,
      "rid": 1712,
      "sed": 1713,
      "sitting": 1714,
      "wro": 1715,
      "health": 1716,
      "reser": 1717,
      "report": 1718,
      "ase": 1719,
      "ents": 1720,
      "forced": 1721,
      "suit": 1722,
      "als": 1723,
      "idence": 1724,
      "greatest": 1725,
      "ption": 1726,
      "receiving": 1727,
      "instead": 1728,
      "understanding": 1729,
      "books": 1730,
      "listened": 1731,
      "months": 1732,
      "admire": 1733,
      "acknowledged": 1734,
      "dancing": 1735,
      "street": 1736,
      "above": 1737,
      "fortunate": 1738,
      "apolo": 1739,
      "wrote": 1740,
      "ail": 1741,
      "dut": 1742,
      "danger": 1743,
      "free": 1744,
      "gl": 1745,
      "hu": 1746,
      "mad": 1747,
      "pard": 1748,
      "pau": 1749,
      "round": 1750,
      "tend": 1751,
      "vain": 1752,
      "rejo": 1753,
      "represent": 1754,
      "remark": 1755,
      "ordin": 1756,
      "stead": 1757,
      "separ": 1758,
      "secre": 1759,
      "chur": 1760,
      "chance": 1761,
      "chuse": 1762,
      "desir": 1763,
      "alarm": 1764,
      "const": 1765,
      "conven": 1766,
      "abl": 1767,
      "unic": 1768,
      "amuse": 1769,
      "posure": 1770,
      "comes": 1771,
      "test": 1772,
      "accompl": 1773,
      "produ": 1774,
      "imprud": 1775,
      "hoped": 1776,
      "maria": 1777,
      "author": 1778,
      "estate": 1779,
      "partner": 1780,
      "morrow": 1781,
      "communic": 1782,
      "licity": 1783,
      "trust": 1784,
      "taking": 1785,
      "particulars": 1786,
      "requi": 1787,
      "comfortable": 1788,
      "concerned": 1789,
      "knowledge": 1790,
      "equally": 1791,
      "suffer": 1792,
      "suffici": 1793,
      "wait": 1794,
      "igence": 1795,
      "engagement": 1796,
      "charming": 1797,
      "profess": 1798,
      "princip": 1799,
      "comprehend": 1800,
      "regret": 1801,
      "excellent": 1802,
      "false": 1803,
      "madam": 1804,
      "pardon": 1805,
      "church": 1806,
      "conveni": 1807,
      "barr": 1808,
      "eper": 1809,
      "gment": 1810,
      "ial": 1811,
      "lam": 1812,
      "late": 1813,
      "none": 1814,
      "ply": 1815,
      "pun": 1816,
      "vation": 1817,
      "whis": 1818,
      "instru": 1819,
      "ative": 1820,
      "stri": 1821,
      "forget": 1822,
      "superi": 1823,
      "ident": 1824,
      "road": 1825,
      "amaz": 1826,
      "composure": 1827,
      "tily": 1828,
      "exam": 1829,
      "iful": 1830,
      "prev": 1831,
      "propos": 1832,
      "six": 1833,
      "gest": 1834,
      "ficul": 1835,
      "morti": 1836,
      "justice": 1837,
      "expectation": 1838,
      "satisf": 1839,
      "women": 1840,
      "delightful": 1841,
      "inclu": 1842,
      "probable": 1843,
      "doubted": 1844,
      "resolution": 1845,
      "quiet": 1846,
      "connections": 1847,
      "blame": 1848,
      "weeks": 1849,
      "anxiety": 1850,
      "circumstance": 1851,
      "summer": 1852,
      "removed": 1853,
      "difficul": 1854,
      "intelligence": 1855,
      "ordinary": 1856,
      "barrass": 1857,
      "superior": 1858,
      "aving": 1859,
      "bow": 1860,
      "fut": 1861,
      "fall": 1862,
      "old": 1863,
      "ris": 1864,
      "sy": 1865,
      "repro": 1866,
      "reached": 1867,
      "assem": 1868,
      "leaving": 1869,
      "nobody": 1870,
      "liar": 1871,
      "vered": 1872,
      "rown": 1873,
      "felicity": 1874,
      "polit": 1875,
      "pert": 1876,
      "aced": 1877,
      "preju": 1878,
      "prospect": 1879,
      "parson": 1880,
      "hold": 1881,
      "sight": 1882,
      "sist": 1883,
      "marked": 1884,
      "happen": 1885,
      "please": 1886,
      "este": 1887,
      "senti": 1888,
      "opened": 1889,
      "readily": 1890,
      "fulness": 1891,
      "support": 1892,
      "passion": 1893,
      "objection": 1894,
      "request": 1895,
      "dining": 1896,
      "smiled": 1897,
      "connection": 1898,
      "connected": 1899,
      "persuade": 1900,
      "accepted": 1901,
      "cheer": 1902,
      "excuse": 1903,
      "extreme": 1904,
      "vanity": 1905,
      "motive": 1906,
      "evident": 1907,
      "eye": 1908,
      "absolutely": 1909,
      "intention": 1910,
      "pause": 1911,
      "future": 1912,
      "prejudi": 1913,
      "parsonage": 1914,
      "card": 1915,
      "ging": 1916,
      "hint": 1917,
      "iced": 1918,
      "land": 1919,
      "mn": 1920,
      "sco": 1921,
      "twent": 1922,
      "wit": 1923,
      "angr": 1924,
      "reed": 1925,
      "resh": 1926,
      "lead": 1927,
      "forgot": 1928,
      "defect": 1929,
      "delic": 1930,
      "dearest": 1931,
      "fered": 1932,
      "united": 1933,
      "excess": 1934,
      "kept": 1935,
      "loss": 1936,
      "urday": 1937,
      "proved": 1938,
      "disposed": 1939,
      "indifference": 1940,
      "apprehen": 1941,
      "cious": 1942,
      "grate": 1943,
      "parted": 1944,
      "acted": 1945,
      "likewise": 1946,
      "saturday": 1947,
      "stranger": 1948,
      "sides": 1949,
      "writing": 1950,
      "carol": 1951,
      "affectionate": 1952,
      "ease": 1953,
      "embarrass": 1954,
      "quick": 1955,
      "promise": 1956,
      "creat": 1957,
      "trade": 1958,
      "pict": 1959,
      "period": 1960,
      "addressed": 1961,
      "disappointment": 1962,
      "companion": 1963,
      "resentment": 1964,
      "recommend": 1965,
      "enquiries": 1966,
      "archive": 1967,
      "politeness": 1968,
      "prejudice": 1969,
      "twenty": 1970,
      "angry": 1971,
      "caroline": 1972,
      "bed": 1973,
      "bad": 1974,
      "dine": 1975,
      "fond": 1976,
      "ration": 1977,
      "tone": 1978,
      "anti": 1979,
      "encourage": 1980,
      "ison": 1981,
      "asha": 1982,
      "became": 1983,
      "besto": 1984,
      "org": 1985,
      "chose": 1986,
      "shew": 1987,
      "desp": 1988,
      "suspect": 1989,
      "alter": 1990,
      "advice": 1991,
      "solic": 1992,
      "convi": 1993,
      "consent": 1994,
      "conclu": 1995,
      "uni": 1996,
      "compassion": 1997,
      "keeper": 1998,
      "lope": 1999,
      "perform": 2000,
      "accor": 2001,
      "provid": 2002,
      "disgrace": 2003,
      "indifferent": 2004,
      "miles": 2005,
      "faul": 2006,
      "otherwise": 2007,
      "appli": 2008,
      "charge": 2009,
      "grac": 2010,
      "grave": 2011,
      "share": 2012,
      "scene": 2013,
      "reading": 2014,
      "housekeeper": 2015,
      "letters": 2016,
      "tting": 2017,
      "understood": 2018,
      "distance": 2019,
      "license": 2020,
      "generally": 2021,
      "related": 2022,
      "mater": 2023,
      "spoken": 2024,
      "questions": 2025,
      "shock": 2026,
      "tolerable": 2027,
      "lucky": 2028,
      "decided": 2029,
      "welcome": 2030,
      "complete": 2031,
      "suddenly": 2032,
      "extraordinary": 2033,
      "ignorant": 2034,
      "influ": 2035,
      "ashamed": 2036,
      "conviction": 2037,
      "cure": 2038,
      "dom": 2039,
      "dri": 2040,
      "furn": 2041,
      "lan": 2042,
      "lor": 2043,
      "mine": 2044,
      "non": 2045,
      "ror": 2046,
      "sit": 2047,
      "sim": 2048,
      "tre": 2049,
      "tried": 2050,
      "winter": 2051,
      "ana": 2052,
      "reg": 2053,
      "renew": 2054,
      "edu": 2055,
      "art": 2056,
      "order": 2057,
      "hall": 2058,
      "nove": 2059,
      "seated": 2060,
      "lived": 2061,
      "vex": 2062,
      "conject": 2063,
      "condesc": 2064,
      "fee": 2065,
      "und": 2066,
      "esca": 2067,
      "lod": 2068,
      "display": 2069,
      "afford": 2070,
      "indul": 2071,
      "fact": 2072,
      "tran": 2073,
      "spee": 2074,
      "establ": 2075,
      "says": 2076,
      "sentence": 2077,
      "addition": 2078,
      "belief": 2079,
      "giana": 2080,
      "umph": 2081,
      "supposing": 2082,
      "aware": 2083,
      "wrong": 2084,
      "generous": 2085,
      "uneas": 2086,
      "calling": 2087,
      "colour": 2088,
      "comply": 2089,
      "lively": 2090,
      "arrived": 2091,
      "beautiful": 2092,
      "succeed": 2093,
      "choice": 2094,
      "declared": 2095,
      "triumph": 2096,
      "donations": 2097,
      "misery": 2098,
      "georgiana": 2099,
      "negle": 2100,
      "duty": 2101,
      "principal": 2102,
      "prevailed": 2103,
      "aven": 2104,
      "cri": 2105,
      "flatter": 2106,
      "gall": 2107,
      "hind": 2108,
      "iv": 2109,
      "kent": 2110,
      "ping": 2111,
      "rance": 2112,
      "tas": 2113,
      "ught": 2114,
      "thes": 2115,
      "onoun": 2116,
      "ency": 2117,
      "enqui": 2118,
      "isure": 2119,
      "ash": 2120,
      "asking": 2121,
      "behind": 2122,
      "arily": 2123,
      "orig": 2124,
      "leisure": 2125,
      "states": 2126,
      "ceive": 2127,
      "entrance": 2128,
      "deb": 2129,
      "deceived": 2130,
      "weak": 2131,
      "sult": 2132,
      "rich": 2133,
      "consol": 2134,
      "agrap": 2135,
      "unable": 2136,
      "exp": 2137,
      "disagreeable": 2138,
      "paragrap": 2139,
      "impert": 2140,
      "pronoun": 2141,
      "vide": 2142,
      "thanks": 2143,
      ".--\"": 2144,
      "looks": 2145,
      "greatly": 2146,
      "youngest": 2147,
      "fami": 2148,
      "firm": 2149,
      "boast": 2150,
      "possibility": 2151,
      "partiality": 2152,
      "clear": 2153,
      "wishing": 2154,
      "priv": 2155,
      "considering": 2156,
      "consideration": 2157,
      "immediate": 2158,
      "gratified": 2159,
      "probation": 2160,
      "observation": 2161,
      "hurry": 2162,
      "respectable": 2163,
      "favourable": 2164,
      "meaning": 2165,
      "painful": 2166,
      "determine": 2167,
      "interesting": 2168,
      "check": 2169,
      "astonished": 2170,
      "close": 2171,
      "struck": 2172,
      "wedding": 2173,
      "judgment": 2174,
      "eagerly": 2175,
      "assistance": 2176,
      "learnt": 2177,
      "assurance": 2178,
      "copyright": 2179,
      "occurred": 2180,
      "visitors": 2181,
      "paren": 2182,
      "elegant": 2183,
      "comparison": 2184,
      "sufficient": 2185,
      "extremely": 2186,
      "creature": 2187,
      "picture": 2188,
      "gracious": 2189,
      "influence": 2190,
      "lord": 2191,
      "taste": 2192,
      "origin": 2193,
      "paragraph": 2194,
      "impertin": 2195,
      "26": 2196,
      "bri": 2197,
      "bled": 2198,
      "cen": 2199,
      "dared": 2200,
      "ger": 2201,
      "iest": 2202,
      "kward": 2203,
      "line": 2204,
      "num": 2205,
      "sday": 2206,
      "twi": 2207,
      "wret": 2208,
      "yest": 2209,
      "heaven": 2210,
      "anged": 2211,
      "erday": 2212,
      "erary": 2213,
      "thir": 2214,
      "tory": 2215,
      "ased": 2216,
      "asser": 2217,
      "ars": 2218,
      "secure": 2219,
      "omin": 2220,
      "hig": 2221,
      "hill": 2222,
      "forth": 2223,
      "def": 2224,
      "sun": 2225,
      "adv": 2226,
      "contempt": 2227,
      "agreed": 2228,
      "unhappy": 2229,
      "unwilling": 2230,
      "musi": 2231,
      "safe": 2232,
      "exclaim": 2233,
      "explan": 2234,
      "ify": 2235,
      "permission": 2236,
      "tea": 2237,
      "fron": 2238,
      "preser": 2239,
      "prote": 2240,
      "propri": 2241,
      "disgu": 2242,
      "misfortune": 2243,
      "worse": 2244,
      "sooner": 2245,
      "shame": 2246,
      "spend": 2247,
      "turning": 2248,
      "believing": 2249,
      "pressed": 2250,
      "partial": 2251,
      "awkward": 2252,
      "interference": 2253,
      "mony": 2254,
      "lucases": 2255,
      "standing": 2256,
      "finding": 2257,
      "clothes": 2258,
      "recollected": 2259,
      "literary": 2260,
      "opening": 2261,
      "frequent": 2262,
      "seriously": 2263,
      "naturally": 2264,
      "distressed": 2265,
      "danced": 2266,
      "servants": 2267,
      "tolerably": 2268,
      "intimate": 2269,
      "watch": 2270,
      "improve": 2271,
      "www": 2272,
      "enjoyment": 2273,
      "beginning": 2274,
      "guarded": 2275,
      "suspic": 2276,
      "relief": 2277,
      "ideas": 2278,
      "constant": 2279,
      "whisper": 2280,
      "grateful": 2281,
      "neglect": 2282,
      "twice": 2283,
      "wretched": 2284,
      "yesterday": 2285,
      "71": 2286,
      "ali": 2287,
      "cr": 2288,
      "hast": 2289,
      "lin": 2290,
      "lau": 2291,
      "lately": 2292,
      "ny": 2293,
      "pared": 2294,
      "swe": 2295,
      "vir": 2296,
      "height": 2297,
      "informed": 2298,
      "inconveni": 2299,
      "rec": 2300,
      "reject": 2301,
      "throw": 2302,
      "encour": 2303,
      "argu": 2304,
      "itated": 2305,
      "lling": 2306,
      "noble": 2307,
      "wild": 2308,
      "deep": 2309,
      "delay": 2310,
      "contain": 2311,
      "abomin": 2312,
      "esday": 2313,
      "loved": 2314,
      "perceived": 2315,
      "teen": 2316,
      "yours": 2317,
      "pret": 2318,
      "prefer": 2319,
      "prepared": 2320,
      "coach": 2321,
      "gover": 2322,
      "silly": 2323,
      "indu": 2324,
      "indign": 2325,
      "applied": 2326,
      "longed": 2327,
      "attached": 2328,
      "inson": 2329,
      "ground": 2330,
      "rence": 2331,
      "actually": 2332,
      "garden": 2333,
      "wood": 2334,
      "gible": 2335,
      "parties": 2336,
      "passing": 2337,
      "attentive": 2338,
      "expressions": 2339,
      "effort": 2340,
      "unex": 2341,
      "stop": 2342,
      "considerable": 2343,
      "natured": 2344,
      "observing": 2345,
      "denny": 2346,
      "pursu": 2347,
      "occasionally": 2348,
      "shortly": 2349,
      "remem": 2350,
      "interested": 2351,
      "recollection": 2352,
      "important": 2353,
      "volunt": 2354,
      "amongst": 2355,
      "engagements": 2356,
      "rapt": 2357,
      "judge": 2358,
      "admired": 2359,
      "disappointed": 2360,
      "approaching": 2361,
      "tuesday": 2362,
      "accident": 2363,
      "bringing": 2364,
      "valuable": 2365,
      "single": 2366,
      "rank": 2367,
      "quarter": 2368,
      "congratulations": 2369,
      "possession": 2370,
      "grieved": 2371,
      "steady": 2372,
      "amusement": 2373,
      "accomplished": 2374,
      "produced": 2375,
      "required": 2376,
      "forgotten": 2377,
      "apprehension": 2378,
      "application": 2379,
      "education": 2380,
      "speech": 2381,
      "music": 2382,
      "sweet": 2383,
      "426": 2384,
      ";\"": 2385,
      "cup": 2386,
      "cru": 2387,
      "cross": 2388,
      "dances": 2389,
      "difference": 2390,
      "ement": 2391,
      "fif": 2392,
      "ghed": 2393,
      "gained": 2394,
      "ilt": 2395,
      "lve": 2396,
      "lour": 2397,
      "mam": 2398,
      "ned": 2399,
      "ring": 2400,
      "sour": 2401,
      "tal": 2402,
      "treat": 2403,
      "ue": 2404,
      "voured": 2405,
      "held": 2406,
      "income": 2407,
      "thrown": 2408,
      "ati": 2409,
      "atures": 2410,
      "besides": 2411,
      "sty": 2412,
      "stud": 2413,
      "lim": 2414,
      "note": 2415,
      "utter": 2416,
      "aloud": 2417,
      "adi": 2418,
      "feared": 2419,
      "fellow": 2420,
      "pecu": 2421,
      "undoubted": 2422,
      "post": 2423,
      "quit": 2424,
      "lose": 2425,
      "ific": 2426,
      "teaz": 2427,
      "access": 2428,
      "provide": 2429,
      "parlour": 2430,
      "imp": 2431,
      "folly": 2432,
      "fool": 2433,
      "sive": 2434,
      "caught": 2435,
      "usal": 2436,
      "ulous": 2437,
      "indi": 2438,
      "bene": 2439,
      "benef": 2440,
      "trave": 2441,
      "moreover": 2442,
      "bless": 2443,
      "service": 2444,
      "attend": 2445,
      "rendered": 2446,
      "oppos": 2447,
      "cler": 2448,
      "clusion": 2449,
      "supper": 2450,
      "strange": 2451,
      "pected": 2452,
      "content": 2453,
      "returning": 2454,
      "due": 2455,
      "elder": 2456,
      "relate": 2457,
      "objections": 2458,
      "wants": 2459,
      "moments": 2460,
      "twelve": 2461,
      "purch": 2462,
      "cousins": 2463,
      "invited": 2464,
      "corre": 2465,
      "necessity": 2466,
      "spirit": 2467,
      "neighbours": 2468,
      "compliments": 2469,
      "piece": 2470,
      "confusion": 2471,
      "confidence": 2472,
      "shook": 2473,
      "drawn": 2474,
      "entertain": 2475,
      "views": 2476,
      "finished": 2477,
      "trif": 2478,
      "inclined": 2479,
      "excited": 2480,
      "smallest": 2481,
      "introduce": 2482,
      "introduction": 2483,
      "laughing": 2484,
      "increased": 2485,
      "increasing": 2486,
      "earnestly": 2487,
      "dreadful": 2488,
      "chaise": 2489,
      "relationship": 2490,
      "recover": 2491,
      "drove": 2492,
      "apolog": 2493,
      "desirable": 2494,
      "imprudent": 2495,
      "instrument": 2496,
      "satisfy": 2497,
      "difficult": 2498,
      "esteem": 2499,
      "delicacy": 2500,
      "excessively": 2501,
      "trademark": 2502,
      "lopement": 2503,
      "provided": 2504,
      "regul": 2505,
      "private": 2506,
      "unexpected": 2507,
      "42671": 2508,
      "peculiar": 2509,
      "opposite": 2510,
      "ath": 2511,
      "bton": 2512,
      "cou": 2513,
      "cise": 2514,
      "ec": 2515,
      "ebook": 2516,
      "fli": 2517,
      "fish": 2518,
      "fash": 2519,
      "gate": 2520,
      "gence": 2521,
      "hate": 2522,
      "lane": 2523,
      "nay": 2524,
      "pit": 2525,
      "past": 2526,
      "spr": 2527,
      "tch": 2528,
      "tall": 2529,
      "vag": 2530,
      "yno": 2531,
      "insufficient": 2532,
      "remind": 2533,
      "reyno": 2534,
      "ones": 2535,
      "error": 2536,
      "ingu": 2537,
      "iture": 2538,
      "itions": 2539,
      "habit": 2540,
      "stu": 2541,
      "seld": 2542,
      "youth": 2543,
      "changed": 2544,
      "lies": 2545,
      "liest": 2546,
      "likes": 2547,
      "shed": 2548,
      "force": 2549,
      "forgive": 2550,
      "depart": 2551,
      "lds": 2552,
      "utmost": 2553,
      "memor": 2554,
      "super": 2555,
      "alous": 2556,
      "advis": 2557,
      "idity": 2558,
      "fema": 2559,
      "aging": 2560,
      "unlucky": 2561,
      "owed": 2562,
      "moved": 2563,
      "pol": 2564,
      "tic": 2565,
      "ties": 2566,
      "qual": 2567,
      "exis": 2568,
      "tears": 2569,
      "preference": 2570,
      "cost": 2571,
      "discu": 2572,
      "parish": 2573,
      "sick": 2574,
      "sibility": 2575,
      "milit": 2576,
      "pract": 2577,
      "bennets": 2578,
      "marks": 2579,
      "speed": 2580,
      "aught": 2581,
      "happiest": 2582,
      "attribut": 2583,
      "goodness": 2584,
      "scru": 2585,
      "bore": 2586,
      "heartily": 2587,
      "rooms": 2588,
      "overcome": 2589,
      "contri": 2590,
      "commend": 2591,
      "commonly": 2592,
      "distingu": 2593,
      "occup": 2594,
      "carry": 2595,
      "consci": 2596,
      "hands": 2597,
      "refund": 2598,
      "sincere": 2599,
      "continue": 2600,
      "smiles": 2601,
      "smiling": 2602,
      "probability": 2603,
      "observe": 2604,
      "hurried": 2605,
      "settle": 2606,
      "direction": 2607,
      "cordi": 2608,
      "advantages": 2609,
      "oblig": 2610,
      "staying": 2611,
      "nearly": 2612,
      "consequently": 2613,
      "listening": 2614,
      "endeavoured": 2615,
      "arrange": 2616,
      "fears": 2617,
      "complain": 2618,
      "waiting": 2619,
      "property": 2620,
      "nieces": 2621,
      "tue": 2622,
      "chiefly": 2623,
      "calm": 2624,
      "value": 2625,
      "solemn": 2626,
      "reflection": 2627,
      "intimacy": 2628,
      "interruption": 2629,
      "various": 2630,
      "contrary": 2631,
      "discover": 2632,
      "running": 2633,
      "impatience": 2634,
      "violent": 2635,
      "proceeded": 2636,
      "ridic": 2637,
      "reserved": 2638,
      "remarkably": 2639,
      "communication": 2640,
      "lambton": 2641,
      "amazement": 2642,
      "proposal": 2643,
      "including": 2644,
      "sentiments": 2645,
      "embarrassment": 2646,
      "rational": 2647,
      "encouragement": 2648,
      "concluded": 2649,
      "furniture": 2650,
      "vexation": 2651,
      "escape": 2652,
      "debts": 2653,
      "consolation": 2654,
      "pronounced": 2655,
      "explanation": 2656,
      "laughed": 2657,
      "virtue": 2658,
      "source": 2659,
      "style": 2660,
      "undoubtedly": 2661,
      "reynolds": 2662,
      "seldom": 2663,
      "discuss": 2664,
      "ather": 2665,
      "ban": 2666,
      "bid": 2667,
      "blu": 2668,
      "dwell": 2669,
      "eight": 2670,
      "elopement": 2671,
      "fresh": 2672,
      "gown": 2673,
      "ior": 2674,
      "ield": 2675,
      "je": 2676,
      "jen": 2677,
      "kinson": 2678,
      "pen": 2679,
      "pity": 2680,
      "sper": 2681,
      "spre": 2682,
      "tress": 2683,
      "xi": 2684,
      "xvi": 2685,
      "yield": 2686,
      "hest": 2687,
      "ining": 2688,
      "inquir": 2689,
      "anne": 2690,
      "anim": 2691,
      "restr": 2692,
      "resign": 2693,
      "thither": 2694,
      "threw": 2695,
      "tom": 2696,
      "associ": 2697,
      "offered": 2698,
      "bered": 2699,
      "become": 2700,
      "itself": 2701,
      "stup": 2702,
      "stic": 2703,
      "seve": 2704,
      "chris": 2705,
      "cere": 2706,
      "entail": 2707,
      "nesday": 2708,
      "sug": 2709,
      "along": 2710,
      "roy": 2711,
      "consis": 2712,
      "conci": 2713,
      "console": 2714,
      "confirm": 2715,
      "pet": 2716,
      "uncommonly": 2717,
      "commission": 2718,
      "quitted": 2719,
      "sacri": 2720,
      "expl": 2721,
      "explain": 2722,
      "prepar": 2723,
      "proof": 2724,
      "prove": 2725,
      "disd": 2726,
      "impress": 2727,
      "mistress": 2728,
      "knows": 2729,
      "maid": 2730,
      "getting": 2731,
      "fail": 2732,
      "fig": 2733,
      "owner": 2734,
      "placed": 2735,
      "haste": 2736,
      "hastily": 2737,
      "intreat": 2738,
      "attending": 2739,
      "insen": 2740,
      "sport": 2741,
      "spond": 2742,
      "fright": 2743,
      "friendship": 2744,
      "gives": 2745,
      "certainty": 2746,
      "reception": 2747,
      "portion": 2748,
      "offended": 2749,
      "contents": 2750,
      "command": 2751,
      "tax": 2752,
      "subjects": 2753,
      "north": 2754,
      "monday": 2755,
      "takes": 2756,
      "story": 2757,
      "refuse": 2758,
      "sincerely": 2759,
      "incred": 2760,
      "persons": 2761,
      "honoured": 2762,
      "directed": 2763,
      "blind": 2764,
      "minute": 2765,
      "honourable": 2766,
      "persuas": 2767,
      "admitted": 2768,
      "humble": 2769,
      "closed": 2770,
      "summon": 2771,
      "wednesday": 2772,
      "keeping": 2773,
      "entering": 2774,
      "declare": 2775,
      "introduced": 2776,
      "patience": 2777,
      "deserve": 2778,
      "deserved": 2779,
      "diff": 2780,
      "intelli": 2781,
      "thankful": 2782,
      "distributing": 2783,
      "repeatedly": 2784,
      "recommended": 2785,
      "gracechurch": 2786,
      "reflections": 2787,
      "assurances": 2788,
      "interrupted": 2789,
      "paper": 2790,
      "remaining": 2791,
      "bitter": 2792,
      "elegance": 2793,
      "exertion": 2794,
      "dressing": 2795,
      "human": 2796,
      "humi": 2797,
      "tender": 2798,
      "rejoiced": 2799,
      "represented": 2800,
      "secret": 2801,
      "secrecy": 2802,
      "imprudence": 2803,
      "authority": 2804,
      "proposals": 2805,
      "quietly": 2806,
      "assembly": 2807,
      "suspected": 2808,
      "fault": 2809,
      "material": 2810,
      "gallant": 2811,
      "expence": 2812,
      "third": 2813,
      "highest": 2814,
      "sunday": 2815,
      "front": 2816,
      "improvement": 2817,
      "suspicion": 2818,
      "lines": 2819,
      "induce": 2820,
      "remembered": 2821,
      "clergy": 2822,
      "correspond": 2823,
      "couple": 2824,
      "jenkinson": 2825,
      "spread": 2826,
      "sacrifi": 2827,
      "explained": 2828,
      "bar": 2829,
      "bir": 2830,
      "bted": 2831,
      "dam": 2832,
      "dome": 2833,
      "dined": 2834,
      "eli": 2835,
      "emed": 2836,
      "fun": 2837,
      "flat": 2838,
      "flow": 2839,
      "fati": 2840,
      "game": 2841,
      "grow": 2842,
      "kill": 2843,
      "la": 2844,
      "laid": 2845,
      "sound": 2846,
      "tê": 2847,
      "tally": 2848,
      "tland": 2849,
      "taught": 2850,
      "vac": 2851,
      "xion": 2852,
      "xii": 2853,
      "inn": 2854,
      "infam": 2855,
      "infer": 2856,
      "incapable": 2857,
      "insist": 2858,
      "ann": 2859,
      "reach": 2860,
      "remarks": 2861,
      "totally": 2862,
      "ises": 2863,
      "bell": 2864,
      "below": 2865,
      "armed": 2866,
      "arise": 2867,
      "itate": 2868,
      "ory": 2869,
      "ordered": 2870,
      "lest": 2871,
      "stren": 2872,
      "start": 2873,
      "seat": 2874,
      "wide": 2875,
      "vexed": 2876,
      "entreat": 2877,
      "shewed": 2878,
      "notion": 2879,
      "noticed": 2880,
      "meas": 2881,
      "altogether": 2882,
      "alarmed": 2883,
      "idle": 2884,
      "conver": 2885,
      "conclusion": 2886,
      "features": 2887,
      "absur": 2888,
      "unjust": 2889,
      "unknown": 2890,
      "unpleasant": 2891,
      "uncomfortable": 2892,
      "mode": 2893,
      "modest": 2894,
      "ourselves": 2895,
      "composed": 2896,
      "quitting": 2897,
      "anybody": 2898,
      "ifying": 2899,
      "perceive": 2900,
      "selfish": 2901,
      "prepare": 2902,
      "coat": 2903,
      "discourse": 2904,
      "mistake": 2905,
      "odd": 2906,
      "fold": 2907,
      "somewhat": 2908,
      "somebody": 2909,
      "makes": 2910,
      "manage": 2911,
      "fai": 2912,
      "seek": 2913,
      "dign": 2914,
      "cial": 2915,
      "obst": 2916,
      "obtain": 2917,
      "happily": 2918,
      "grad": 2919,
      "estim": 2920,
      "spared": 2921,
      "formal": 2922,
      "counter": 2923,
      "supply": 2924,
      "offence": 2925,
      "possibly": 2926,
      "court": 2927,
      "independ": 2928,
      "indebted": 2929,
      "begged": 2930,
      "seness": 2931,
      "wherever": 2932,
      "ilities": 2933,
      "guess": 2934,
      "death": 2935,
      "expressing": 2936,
      "trusted": 2937,
      "carried": 2938,
      "opinions": 2939,
      "allowing": 2940,
      "follows": 2941,
      "occasions": 2942,
      "circle": 2943,
      "behaved": 2944,
      "cured": 2945,
      "deny": 2946,
      "collection": 2947,
      "promo": 2948,
      "wondered": 2949,
      "concerns": 2950,
      "office": 2951,
      "drink": 2952,
      "suffered": 2953,
      "formerly": 2954,
      "imagin": 2955,
      "balls": 2956,
      "recollections": 2957,
      "doors": 2958,
      "usually": 2959,
      "chosen": 2960,
      "choose": 2961,
      "openly": 2962,
      "properly": 2963,
      "strongly": 2964,
      "matters": 2965,
      "eagerness": 2966,
      "acknowledge": 2967,
      "laws": 2968,
      "approach": 2969,
      "extent": 2970,
      "horses": 2971,
      "distribute": 2972,
      "distribution": 2973,
      "phy": 2974,
      "abode": 2975,
      "assist": 2976,
      "variety": 2977,
      "extravag": 2978,
      "discovered": 2979,
      "ignorance": 2980,
      "resses": 2981,
      "relieved": 2982,
      "impatient": 2983,
      "george": 2984,
      "employed": 2985,
      "evils": 2986,
      "warmth": 2987,
      "warmly": 2988,
      "reserve": 2989,
      "apology": 2990,
      "freely": 2991,
      "separation": 2992,
      "require": 2993,
      "lament": 2994,
      "punct": 2995,
      "mortifi": 2996,
      "difficulty": 2997,
      "sym": 2998,
      "reproach": 2999,
      "sentiment": 3000,
      "scotland": 3001,
      "witness": 3002,
      "bestow": 3003,
      "bestowed": 3004,
      "alteration": 3005,
      "solicitude": 3006,
      "according": 3007,
      "shocked": 3008,
      "domain": 3009,
      "langu": 3010,
      "nonsense": 3011,
      "lodge": 3012,
      "tranqu": 3013,
      "uneasy": 3014,
      "original": 3015,
      "impertinence": 3016,
      "number": 3017,
      "assert": 3018,
      "advise": 3019,
      "exclaimed": 3020,
      "protested": 3021,
      "propriety": 3022,
      "watching": 3023,
      "heightened": 3024,
      "inconvenience": 3025,
      "encouraged": 3026,
      "governess": 3027,
      "indignation": 3028,
      "voluntarily": 3029,
      "cruel": 3030,
      "foolish": 3031,
      "flir": 3032,
      "fashion": 3033,
      "memory": 3034,
      "female": 3035,
      "polite": 3036,
      "scruple": 3037,
      "commendation": 3038,
      "arrangement": 3039,
      "associated": 3040,
      "severe": 3041,
      "figure": 3042,
      "frightened": 3043,
      "persuasion": 3044,
      "gallantry": 3045,
      "clergyman": 3046,
      "sacrifice": 3047,
      "domestic": 3048,
      "fatigu": 3049,
      "tête": 3050,
      "inferior": 3051,
      "absurd": 3052,
      ":--": 3053,
      "bent": 3054,
      "cof": 3055,
      "cam": 3056,
      "cated": 3057,
      "cared": 3058,
      "dir": 3059,
      "dred": 3060,
      "ebooks": 3061,
      "finer": 3062,
      "fret": 3063,
      "gg": 3064,
      "hone": 3065,
      "iz": 3066,
      "lou": 3067,
      "liness": 3068,
      "owe": 3069,
      "page": 3070,
      "ram": 3071,
      "rone": 3072,
      "rous": 3073,
      "rising": 3074,
      "sle": 3075,
      "sal": 3076,
      "sions": 3077,
      "vous": 3078,
      "wound": 3079,
      "inju": 3080,
      "invol": 3081,
      "resem": 3082,
      "oul": 3083,
      "ering": 3084,
      "thod": 3085,
      "enced": 3086,
      "ension": 3087,
      "attra": 3088,
      "betr": 3089,
      "ital": 3090,
      "itable": 3091,
      "llable": 3092,
      "sti": 3093,
      "staid": 3094,
      "sex": 3095,
      "section": 3096,
      "search": 3097,
      "omy": 3098,
      "wilf": 3099,
      "cease": 3100,
      "forbear": 3101,
      "defici": 3102,
      "deliber": 3103,
      "weight": 3104,
      "utation": 3105,
      "method": 3106,
      "altered": 3107,
      "allud": 3108,
      "rose": 3109,
      "riages": 3110,
      "rimony": 3111,
      "contained": 3112,
      "consult": 3113,
      "abhor": 3114,
      "abilities": 3115,
      "pered": 3116,
      "peace": 3117,
      "unte": 3118,
      "unaffected": 3119,
      "unreasonable": 3120,
      "unfold": 3121,
      "amend": 3122,
      "moder": 3123,
      "aint": 3124,
      "comed": 3125,
      "arer": 3126,
      "tired": 3127,
      "quali": 3128,
      "expose": 3129,
      "loso": 3130,
      "perver": 3131,
      "performed": 3132,
      "actory": 3133,
      "willingly": 3134,
      "pretend": 3135,
      "disclaim": 3136,
      "god": 3137,
      "improbable": 3138,
      "shar": 3139,
      "fire": 3140,
      "print": 3141,
      "vill": 3142,
      "thanked": 3143,
      "seeking": 3144,
      "apply": 3145,
      "approbation": 3146,
      "worst": 3147,
      "cied": 3148,
      "intending": 3149,
      "attack": 3150,
      "charles": 3151,
      "grand": 3152,
      "spare": 3153,
      "useless": 3154,
      "parting": 3155,
      "friendly": 3156,
      "illu": 3157,
      "boy": 3158,
      "lessness": 3159,
      "addresses": 3160,
      "hopeless": 3161,
      "engross": 3162,
      "clever": 3163,
      "ilar": 3164,
      "volu": 3165,
      "expectations": 3166,
      "telling": 3167,
      "kindly": 3168,
      "pointed": 3169,
      "merit": 3170,
      "truly": 3171,
      "carriages": 3172,
      "venture": 3173,
      "ventured": 3174,
      "objects": 3175,
      "wanting": 3176,
      "interval": 3177,
      "refusing": 3178,
      "refresh": 3179,
      "refusal": 3180,
      "appearing": 3181,
      "civilities": 3182,
      "instance": 3183,
      "instant": 3184,
      "spot": 3185,
      "concerning": 3186,
      "mentioning": 3187,
      "tempted": 3188,
      "temptation": 3189,
      "resolving": 3190,
      "directions": 3191,
      "blance": 3192,
      "created": 3193,
      "patron": 3194,
      "patrone": 3195,
      "humoured": 3196,
      "copies": 3197,
      "differently": 3198,
      "strugg": 3199,
      "philoso": 3200,
      "disapprobation": 3201,
      "shop": 3202,
      "waited": 3203,
      "entertained": 3204,
      "volunte": 3205,
      "finally": 3206,
      "finite": 3207,
      "dependence": 3208,
      "judged": 3209,
      "aired": 3210,
      "endeavours": 3211,
      "fancied": 3212,
      "hundred": 3213,
      "removal": 3214,
      "companions": 3215,
      "calcul": 3216,
      "enquiry": 3217,
      "worthy": 3218,
      "luckily": 3219,
      "signific": 3220,
      "watched": 3221,
      "princi": 3222,
      "welcomed": 3223,
      "complexion": 3224,
      "dreaded": 3225,
      "discovery": 3226,
      "affairs": 3227,
      "schemes": 3228,
      "liberty": 3229,
      "concealed": 3230,
      "congratulate": 3231,
      "avail": 3232,
      "describe": 3233,
      "description": 3234,
      "glance": 3235,
      "rejoice": 3236,
      "remarkable": 3237,
      "chuses": 3238,
      "desirous": 3239,
      "profession": 3240,
      "falsehood": 3241,
      "sixteen": 3242,
      "satisfactory": 3243,
      "esteemed": 3244,
      "cheerful": 3245,
      "cheerfulness": 3246,
      "cards": 3247,
      "embarrassed": 3248,
      "univers": 3249,
      "completely": 3250,
      "similar": 3251,
      "treated": 3252,
      "renewal": 3253,
      "orders": 3254,
      "conjecture": 3255,
      "condescension": 3256,
      "lodg": 3257,
      "established": 3258,
      "uneasiness": 3259,
      "succeeded": 3260,
      "enquire": 3261,
      "enquired": 3262,
      "familiar": 3263,
      "families": 3264,
      "parents": 3265,
      "woods": 3266,
      "raptures": 3267,
      "mamma": 3268,
      "study": 3269,
      "adie": 3270,
      "teazing": 3271,
      "individ": 3272,
      "contented": 3273,
      "twelvemonth": 3274,
      "spring": 3275,
      "studi": 3276,
      "blushed": 3277,
      "dwelling": 3278,
      "jealous": 3279,
      "impression": 3280,
      "eligible": 3281,
      "flattered": 3282,
      "announ": 3283,
      "coffee": 3284,
      "roused": 3285,
      "resemblance": 3286,
      "betray": 3287,
      "patroness": 3288,
      "//": 3289,
      "18": 3290,
      "://": 3291,
      "ah": 3292,
      "ais": 3293,
      "ake": 3294,
      "apart": 3295,
      "actions": 3296,
      "cher": 3297,
      "cast": 3298,
      "cations": 3299,
      "ches": 3300,
      "dingly": 3301,
      "econ": 3302,
      "emo": 3303,
      "equi": 3304,
      "eties": 3305,
      "fl": 3306,
      "fying": 3307,
      "fitted": 3308,
      "gth": 3309,
      "hy": 3310,
      "htt": 3311,
      "jame": 3312,
      "lak": 3313,
      "leness": 3314,
      "mand": 3315,
      "mut": 3316,
      "main": 3317,
      "moun": 3318,
      "nam": 3319,
      "ot": 3320,
      "por": 3321,
      "pal": 3322,
      "ptom": 3323,
      "rity": 3324,
      "sly": 3325,
      "sad": 3326,
      "song": 3327,
      "sink": 3328,
      "soften": 3329,
      "slow": 3330,
      "tour": 3331,
      "ully": 3332,
      "vok": 3333,
      "vary": 3334,
      "wand": 3335,
      "warr": 3336,
      "inj": 3337,
      "insol": 3338,
      "inses": 3339,
      "infinite": 3340,
      "replace": 3341,
      "resto": 3342,
      "reconci": 3343,
      "oup": 3344,
      "ery": 3345,
      "enum": 3346,
      "isa": 3347,
      "aspect": 3348,
      "eding": 3349,
      "belong": 3350,
      "aris": 3351,
      "arti": 3352,
      "itic": 3353,
      "lled": 3354,
      "leg": 3355,
      "star": 3356,
      "sees": 3357,
      "ceased": 3358,
      "entailed": 3359,
      "shewn": 3360,
      "dead": 3361,
      "dete": 3362,
      "deference": 3363,
      "deceive": 3364,
      "demand": 3365,
      "web": 3366,
      "weather": 3367,
      "utious": 3368,
      "uttered": 3369,
      "melan": 3370,
      "aye": 3371,
      "irr": 3372,
      "iring": 3373,
      "white": 3374,
      "iding": 3375,
      "river": 3376,
      "agitation": 3377,
      "unfortunate": 3378,
      "amused": 3379,
      "moving": 3380,
      "bye": 3381,
      "--\"": 3382,
      "experi": 3383,
      "exec": 3384,
      "anything": 3385,
      "accompan": 3386,
      "across": 3387,
      "urged": 3388,
      "previ": 3389,
      "preten": 3390,
      "presence": 3391,
      "provo": 3392,
      "proportion": 3393,
      "provok": 3394,
      "discer": 3395,
      "displeasure": 3396,
      "discre": 3397,
      "sical": 3398,
      "aff": 3399,
      "cautious": 3400,
      "ush": 3401,
      "ants": 3402,
      "sisted": 3403,
      "mile": 3404,
      "fix": 3405,
      "vile": 3406,
      "trans": 3407,
      "tracted": 3408,
      "missed": 3409,
      "dict": 3410,
      "pled": 3411,
      "grew": 3412,
      "gress": 3413,
      "collinses": 3414,
      "wisest": 3415,
      "pleasan": 3416,
      "grounds": 3417,
      "taining": 3418,
      "useful": 3419,
      "cases": 3420,
      "active": 3421,
      "actual": 3422,
      "scri": 3423,
      "format": 3424,
      "clam": 3425,
      "lty": 3426,
      "county": 3427,
      "pressing": 3428,
      "houses": 3429,
      "earliest": 3430,
      "engaging": 3431,
      "sens": 3432,
      "subst": 3433,
      "justify": 3434,
      "price": 3435,
      "privile": 3436,
      "distin": 3437,
      "nice": 3438,
      "pleasures": 3439,
      "guest": 3440,
      "gardiners": 3441,
      "matrimony": 3442,
      "coloured": 3443,
      "intercourse": 3444,
      "refused": 3445,
      "continually": 3446,
      "gratifying": 3447,
      "trying": 3448,
      "hurt": 3449,
      "raised": 3450,
      "tmas": 3451,
      "anging": 3452,
      "respects": 3453,
      "desired": 3454,
      "denial": 3455,
      "pursuit": 3456,
      "invite": 3457,
      "occasional": 3458,
      "corum": 3459,
      "corps": 3460,
      "powers": 3461,
      "necessarily": 3462,
      "breeding": 3463,
      "acceptable": 3464,
      "oblige": 3465,
      "obliging": 3466,
      "admit": 3467,
      "compliance": 3468,
      "playing": 3469,
      "repeating": 3470,
      "clock": 3471,
      "tables": 3472,
      "suming": 3473,
      "complais": 3474,
      "names": 3475,
      "condition": 3476,
      "conceited": 3477,
      "declar": 3478,
      "declined": 3479,
      "stronger": 3480,
      "offers": 3481,
      "claims": 3482,
      "rupt": 3483,
      "distressing": 3484,
      "lawn": 3485,
      "approached": 3486,
      "ential": 3487,
      "designed": 3488,
      "larger": 3489,
      "accus": 3490,
      "horse": 3491,
      "plainly": 3492,
      "valued": 3493,
      "increase": 3494,
      "reflect": 3495,
      "improved": 3496,
      "impropri": 3497,
      "interrupt": 3498,
      "purposely": 3499,
      "quarrel": 3500,
      "miserable": 3501,
      "chair": 3502,
      "motives": 3503,
      "violently": 3504,
      "employment": 3505,
      "paying": 3506,
      "recovered": 3507,
      "exercise": 3508,
      "proceeding": 3509,
      "described": 3510,
      "windows": 3511,
      "dressed": 3512,
      "separate": 3513,
      "produce": 3514,
      "professions": 3515,
      "example": 3516,
      "mortifying": 3517,
      "syllable": 3518,
      "reproof": 3519,
      "assembled": 3520,
      "leading": 3521,
      "defects": 3522,
      "delicate": 3523,
      "anticip": 3524,
      "uniform": 3525,
      "performance": 3526,
      "accordingly": 3527,
      "shocking": 3528,
      "renewed": 3529,
      "displaying": 3530,
      "indulgence": 3531,
      "establishment": 3532,
      "additional": 3533,
      "complying": 3534,
      "parent": 3535,
      "impertinent": 3536,
      "disgust": 3537,
      "critic": 3538,
      "delayed": 3539,
      "abominable": 3540,
      "pursue": 3541,
      "fifty": 3542,
      "treatment": 3543,
      "travelling": 3544,
      "purchase": 3545,
      "entertainment": 3546,
      "reminded": 3547,
      "departure": 3548,
      "advisable": 3549,
      "qualities": 3550,
      "militia": 3551,
      "speedily": 3552,
      "distinguished": 3553,
      "occupied": 3554,
      "obligation": 3555,
      "inquiries": 3556,
      "resigned": 3557,
      "christmas": 3558,
      "consisten": 3559,
      "preparing": 3560,
      "disdain": 3561,
      "strength": 3562,
      "modesty": 3563,
      "obstin": 3564,
      "gradually": 3565,
      "independence": 3566,
      "mortification": 3567,
      "symptom": 3568,
      "language": 3569,
      "tranquill": 3570,
      "flirt": 3571,
      "honest": 3572,
      "louisa": 3573,
      "forbearance": 3574,
      "alluded": 3575,
      "abhorrence": 3576,
      "perverseness": 3577,
      "printed": 3578,
      "village": 3579,
      "illustr": 3580,
      "volume": 3581,
      "volunteers": 3582,
      "principle": 3583,
      "individual": 3584,
      "james": 3585,
      "lakes": 3586,
      "softened": 3587,
      "enumer": 3588,
      "accompanied": 3589,
      ",'": 3590,
      ",)": 3591,
      ".'": 3592,
      "aily": 3593,
      "bare": 3594,
      "bought": 3595,
      "cat": 3596,
      "cit": 3597,
      "cham": 3598,
      "dwe": 3599,
      "date": 3600,
      "ev": 3601,
      "elo": 3602,
      "eward": 3603,
      "fare": 3604,
      "gen": 3605,
      "gain": 3606,
      "glo": 3607,
      "grown": 3608,
      "har": 3609,
      "harm": 3610,
      "ially": 3611,
      "ible": 3612,
      "jones": 3613,
      "lst": 3614,
      "lity": 3615,
      "link": 3616,
      "ming": 3617,
      "mit": 3618,
      "mend": 3619,
      "nar": 3620,
      "pap": 3621,
      "rain": 3622,
      "rate": 3623,
      "sin": 3624,
      "san": 3625,
      "som": 3626,
      "spl": 3627,
      "sought": 3628,
      "ule": 3629,
      "uced": 3630,
      "vance": 3631,
      "war": 3632,
      "warn": 3633,
      "yed": 3634,
      "ze": 3635,
      "intru": 3636,
      "ank": 3637,
      "ano": 3638,
      "ancy": 3639,
      "reli": 3640,
      "rect": 3641,
      "revi": 3642,
      "result": 3643,
      "ouched": 3644,
      "online": 3645,
      "thin": 3646,
      "ason": 3647,
      "arose": 3648,
      "arising": 3649,
      "itive": 3650,
      "itled": 3651,
      "itations": 3652,
      "itating": 3653,
      "hack": 3654,
      "letting": 3655,
      "noon": 3656,
      "station": 3657,
      "stared": 3658,
      "steward": 3659,
      "season": 3660,
      "ceiving": 3661,
      "lier": 3662,
      "lihood": 3663,
      "vesti": 3664,
      "hib": 3665,
      "hither": 3666,
      "forte": 3667,
      "forbid": 3668,
      "devo": 3669,
      "defer": 3670,
      "demn": 3671,
      "decorum": 3672,
      "nearest": 3673,
      "nearer": 3674,
      "west": 3675,
      "welf": 3676,
      "uted": 3677,
      "mere": 3678,
      "mess": 3679,
      "alac": 3680,
      "withdrew": 3681,
      "allusion": 3682,
      "advan": 3683,
      "idd": 3684,
      "idge": 3685,
      "rob": 3686,
      "ric": 3687,
      "conve": 3688,
      "condemn": 3689,
      "abrupt": 3690,
      "petu": 3691,
      "uncivil": 3692,
      "uncommon": 3693,
      "amid": 3694,
      "move": 3695,
      "exten": 3696,
      "exped": 3697,
      "exposing": 3698,
      "exclam": 3699,
      "ket": 3700,
      "lover": 3701,
      "anyone": 3702,
      "persever": 3703,
      "teach": 3704,
      "frank": 3705,
      "acing": 3706,
      "acity": 3707,
      "accompany": 3708,
      "acency": 3709,
      "preced": 3710,
      "proposed": 3711,
      "protest": 3712,
      "prosper": 3713,
      "progress": 3714,
      "dish": 3715,
      "dischar": 3716,
      "disadvantage": 3717,
      "imposed": 3718,
      "imput": 3719,
      "caution": 3720,
      "indic": 3721,
      "gested": 3722,
      "mixt": 3723,
      "shut": 3724,
      "shru": 3725,
      "trace": 3726,
      "apparent": 3727,
      "divid": 3728,
      "bingleys": 3729,
      "cide": 3730,
      "sermon": 3731,
      "bery": 3732,
      "pleasantly": 3733,
      "dering": 3734,
      "intend": 3735,
      "shared": 3736,
      "spending": 3737,
      "plicit": 3738,
      "opposed": 3739,
      "parts": 3740,
      "likelihood": 3741,
      "lessen": 3742,
      "adding": 3743,
      "england": 3744,
      "survi": 3745,
      "icing": 3746,
      "ishments": 3747,
      "contact": 3748,
      "contribut": 3749,
      "sensibility": 3750,
      "justified": 3751,
      "visits": 3752,
      "expecting": 3753,
      "distur": 3754,
      "distant": 3755,
      "dull": 3756,
      "guilt": 3757,
      "energy": 3758,
      "tempered": 3759,
      "presentation": 3760,
      "pointing": 3761,
      "broken": 3762,
      "mercen": 3763,
      "relating": 3764,
      "conscious": 3765,
      "causes": 3766,
      "places": 3767,
      "reasons": 3768,
      "reasonably": 3769,
      "version": 3770,
      "medium": 3771,
      "requiring": 3772,
      "incum": 3773,
      "respectability": 3774,
      "visiting": 3775,
      "blush": 3776,
      "patched": 3777,
      "breach": 3778,
      "accepting": 3779,
      "elsewhere": 3780,
      "repeat": 3781,
      "imagined": 3782,
      "piano": 3783,
      "ruin": 3784,
      "recollecting": 3785,
      "putting": 3786,
      "confined": 3787,
      "fearful": 3788,
      "complacency": 3789,
      "choly": 3790,
      "conceit": 3791,
      "capti": 3792,
      "finish": 3793,
      "rapid": 3794,
      ",--\"": 3795,
      "approve": 3796,
      "endeavouring": 3797,
      "deserving": 3798,
      "attempted": 3799,
      "stream": 3800,
      "horror": 3801,
      "visible": 3802,
      "distributed": 3803,
      "enquiring": 3804,
      "curious": 3805,
      "donate": 3806,
      "events": 3807,
      "fortunately": 3808,
      "remains": 3809,
      "thorough": 3810,
      "----\"": 3811,
      "joining": 3812,
      "guardi": 3813,
      "liberal": 3814,
      "suspense": 3815,
      "bule": 3816,
      "evidently": 3817,
      "steps": 3818,
      "impatiently": 3819,
      "born": 3820,
      "borne": 3821,
      "drop": 3822,
      "suitable": 3823,
      "representation": 3824,
      "alarming": 3825,
      "accomplishments": 3826,
      "sufficiently": 3827,
      "principally": 3828,
      "convenient": 3829,
      "punishment": 3830,
      "whist": 3831,
      "strike": 3832,
      "amazed": 3833,
      "mortified": 3834,
      "included": 3835,
      "risk": 3836,
      "holding": 3837,
      "conclude": 3838,
      "providing": 3839,
      "disgraceful": 3840,
      "materially": 3841,
      "driven": 3842,
      "simple": 3843,
      "trees": 3844,
      "november": 3845,
      "novelty": 3846,
      "condescended": 3847,
      "escaped": 3848,
      "afforded": 3849,
      "indulge": 3850,
      "gallery": 3851,
      "weakness": 3852,
      "checked": 3853,
      "censure": 3854,
      "preserve": 3855,
      "misfortunes": 3856,
      "hasty": 3857,
      "recent": 3858,
      "argument": 3859,
      "arguments": 3860,
      "deeply": 3861,
      "efforts": 3862,
      "stopped": 3863,
      "sweetness": 3864,
      "crossed": 3865,
      "talents": 3866,
      "limited": 3867,
      "beneath": 3868,
      "benefit": 3869,
      "trifle": 3870,
      "trifling": 3871,
      "recovering": 3872,
      "regular": 3873,
      "fishing": 3874,
      "attributed": 3875,
      "conscience": 3876,
      "solemnity": 3877,
      "ridicule": 3878,
      "discussion": 3879,
      "restraint": 3880,
      "ceremony": 3881,
      "suggested": 3882,
      "royal": 3883,
      "confirmation": 3884,
      "petition": 3885,
      "intreaty": 3886,
      "insensibility": 3887,
      "summoned": 3888,
      "diffidence": 3889,
      "intelligible": 3890,
      "bitterness": 3891,
      "humility": 3892,
      "inducement": 3893,
      "correspondence": 3894,
      "birth": 3895,
      "vacant": 3896,
      "measure": 3897,
      "management": 3898,
      "dignity": 3899,
      "estimation": 3900,
      "imaginary": 3901,
      "attractions": 3902,
      "deficient": 3903,
      "unfolded": 3904,
      "amends": 3905,
      "qualified": 3906,
      "engrossed": 3907,
      "refreshment": 3908,
      "philosophy": 3909,
      "lodgings": 3910,
      "adieu": 3911,
      "economy": 3912,
      "emotion": 3913,
      "http": 3914,
      "mutual": 3915,
      "insolent": 3916,
      "replacement": 3917,
      "arisen": 3918,
      "article": 3919,
      "melancholy": 3920,
      "provoke": 3921,
      "discretion": 3922,
      "distinction": 3923,
      "complaisance": 3924,
      "declaration": 3925,
      "impropriety": 3926,
      "tranquillity": 3927,
      "illustration": 3928,
      "enumerating": 3929,
      "catch": 3930,
      "chamber": 3931,
      "dwelt": 3932,
      "papa": 3933,
      "splend": 3934,
      "vestibule": 3935,
      "welfare": 3936,
      "alacrity": 3937,
      "advanced": 3938,
      "mixture": 3939,
      "mercenary": 3940,
      "!)": 3941,
      "),": 3942,
      "00": 3943,
      "13": 3944,
      "15": 3945,
      "athe": 3946,
      "awe": 3947,
      "bur": 3948,
      "bred": 3949,
      "bound": 3950,
      "bbery": 3951,
      "cand": 3952,
      "cough": 3953,
      "dated": 3954,
      "eat": 3955,
      "eur": 3956,
      "eks": 3957,
      "fed": 3958,
      "fing": 3959,
      "freed": 3960,
      "glow": 3961,
      "gai": 3962,
      "hat": 3963,
      "hated": 3964,
      "ild": 3965,
      "iance": 3966,
      "ipt": 3967,
      "iled": 3968,
      "ls": 3969,
      "lower": 3970,
      "loud": 3971,
      "ms": 3972,
      "mir": 3973,
      "mitted": 3974,
      "midd": 3975,
      "opt": 3976,
      "olly": 3977,
      "obey": 3978,
      "pon": 3979,
      "pha": 3980,
      "pended": 3981,
      "rase": 3982,
      "sl": 3983,
      "site": 3984,
      "scold": 3985,
      "tse": 3986,
      "tong": 3987,
      "trem": 3988,
      "touched": 3989,
      "ug": 3990,
      "uously": 3991,
      "vou": 3992,
      "vall": 3993,
      "wink": 3994,
      "yaw": 3995,
      "heav": 3996,
      "inher": 3997,
      "invent": 3998,
      "inqui": 3999,
      "injustice": 4000,
      "insignific": 4001,
      "inconsisten": 4002,
      "anch": 4003,
      "ancing": 4004,
      "refr": 4005,
      "reven": 4006,
      "reference": 4007,
      "reaching": 4008,
      "resist": 4009,
      "outh": 4010,
      "err": 4011,
      "thur": 4012,
      "env": 4013,
      "ensu": 4014,
      "atone": 4015,
      "atus": 4016,
      "atory": 4017,
      "ision": 4018,
      "assent": 4019,
      "aside": 4020,
      "editions": 4021,
      "ingen": 4022,
      "behave": 4023,
      "behalf": 4024,
      "becoming": 4025,
      "becomes": 4026,
      "arts": 4027,
      "iter": 4028,
      "ites": 4029,
      "itary": 4030,
      "orned": 4031,
      "hab": 4032,
      "lle": 4033,
      "llies": 4034,
      "llers": 4035,
      "status": 4036,
      "sele": 4037,
      "secured": 4038,
      "seiz": 4039,
      "liation": 4040,
      "lift": 4041,
      "lives": 4042,
      "velope": 4043,
      "entitled": 4044,
      "sheet": 4045,
      "forci": 4046,
      "vering": 4047,
      "verted": 4048,
      "des": 4049,
      "det": 4050,
      "depri": 4051,
      "delive": 4052,
      "detest": 4053,
      "desper": 4054,
      "decide": 4055,
      "depended": 4056,
      "meat": 4057,
      "mest": 4058,
      "alo": 4059,
      "withheld": 4060,
      "history": 4061,
      "allied": 4062,
      "adri": 4063,
      "adopt": 4064,
      "idable": 4065,
      "confir": 4066,
      "contem": 4067,
      "conference": 4068,
      "fees": 4069,
      ".\"--": 4070,
      "absent": 4071,
      "abroad": 4072,
      "abund": 4073,
      "agitated": 4074,
      "unas": 4075,
      "unlike": 4076,
      "unlikely": 4077,
      "unnecessary": 4078,
      "unpardon": 4079,
      "unconnected": 4080,
      "unwelcome": 4081,
      "ungracious": 4082,
      "unguarded": 4083,
      "unwillingly": 4084,
      "unworthy": 4085,
      "aming": 4086,
      "amusing": 4087,
      "owing": 4088,
      "poc": 4089,
      "posted": 4090,
      "complied": 4091,
      "compose": 4092,
      "mult": 4093,
      "tire": 4094,
      "whilst": 4095,
      "que": 4096,
      "quadri": 4097,
      "kets": 4098,
      "lock": 4099,
      "lovers": 4100,
      "located": 4101,
      "perusal": 4102,
      "perceiving": 4103,
      "perpetu": 4104,
      "acked": 4105,
      "acutely": 4106,
      "dol": 4107,
      "precip": 4108,
      "endured": 4109,
      "coolly": 4110,
      "prodi": 4111,
      "provis": 4112,
      "procured": 4113,
      "disp": 4114,
      "displeased": 4115,
      "dissatisfied": 4116,
      "disliked": 4117,
      "disinterested": 4118,
      "dispatched": 4119,
      "reduced": 4120,
      "inev": 4121,
      "follies": 4122,
      "hoping": 4123,
      "sip": 4124,
      "size": 4125,
      "affront": 4126,
      "capt": 4127,
      "caprice": 4128,
      "somewhere": 4129,
      "ular": 4130,
      "mali": 4131,
      "sisting": 4132,
      "mild": 4133,
      "micha": 4134,
      "shy": 4135,
      "files": 4136,
      "thanking": 4137,
      "apham": 4138,
      "die": 4139,
      "plation": 4140,
      "eton": 4141,
      "cerity": 4142,
      "akened": 4143,
      "spection": 4144,
      "thinks": 4145,
      "obtained": 4146,
      "derive": 4147,
      "inspi": 4148,
      "grav": 4149,
      "group": 4150,
      "estates": 4151,
      "shaken": 4152,
      "tains": 4153,
      "nerves": 4154,
      "nervous": 4155,
      "luct": 4156,
      "jum": 4157,
      "activ": 4158,
      "lieu": 4159,
      "younge": 4160,
      "surely": 4161,
      "feels": 4162,
      "evenings": 4163,
      "readiness": 4164,
      "warded": 4165,
      "forming": 4166,
      "formidable": 4167,
      "overspread": 4168,
      "clapham": 4169,
      "newcast": 4170,
      "moral": 4171,
      "supposition": 4172,
      "receipt": 4173,
      "walks": 4174,
      "brance": 4175,
      "bridge": 4176,
      "branch": 4177,
      "lasted": 4178,
      "ically": 4179,
      "awakened": 4180,
      "begins": 4181,
      "solitary": 4182,
      "visited": 4183,
      "gentleness": 4184,
      "worked": 4185,
      "agreeably": 4186,
      "!\"--": 4187,
      "points": 4188,
      "broke": 4189,
      "carter": 4190,
      "eff": 4191,
      "efly": 4192,
      "unequal": 4193,
      "comput": 4194,
      "compared": 4195,
      "kingdom": 4196,
      "affections": 4197,
      "affectionately": 4198,
      "continuance": 4199,
      "appears": 4200,
      "minds": 4201,
      "instances": 4202,
      "delightfully": 4203,
      "characters": 4204,
      "observ": 4205,
      "empt": 4206,
      "embr": 4207,
      "circul": 4208,
      "occasioned": 4209,
      "elev": 4210,
      "meanwhile": 4211,
      "comforts": 4212,
      "promising": 4213,
      "bling": 4214,
      "creating": 4215,
      "repine": 4216,
      "repaired": 4217,
      "regarded": 4218,
      "officious": 4219,
      "husbands": 4220,
      "pains": 4221,
      "liveliness": 4222,
      "breath": 4223,
      "acceptance": 4224,
      "senses": 4225,
      "throughout": 4226,
      "careful": 4227,
      "curtse": 4228,
      "cheeks": 4229,
      "humbled": 4230,
      "imagination": 4231,
      "beauties": 4232,
      "copse": 4233,
      "copying": 4234,
      "convince": 4235,
      "destined": 4236,
      "destroy": 4237,
      "wisely": 4238,
      "handsomest": 4239,
      "situated": 4240,
      "confid": 4241,
      "confused": 4242,
      "headstrong": 4243,
      "sorrow": 4244,
      "capital": 4245,
      "viewing": 4246,
      "rapidity": 4247,
      "introducing": 4248,
      "designs": 4249,
      "deserves": 4250,
      "charms": 4251,
      "attempting": 4252,
      "accent": 4253,
      "accuse": 4254,
      "iii": 4255,
      "slightly": 4256,
      "prudent": 4257,
      "prudence": 4258,
      "phrase": 4259,
      "assisted": 4260,
      "needless": 4261,
      "solely": 4262,
      "water": 4263,
      "assuring": 4264,
      "path": 4265,
      "pale": 4266,
      "enjoying": 4267,
      "contrast": 4268,
      "contradi": 4269,
      "quarre": 4270,
      "occurrence": 4271,
      "fancying": 4272,
      "buy": 4273,
      "build": 4274,
      "residence": 4275,
      "employments": 4276,
      "confessed": 4277,
      "infli": 4278,
      "enetr": 4279,
      "absolute": 4280,
      "intentions": 4281,
      "dropt": 4282,
      "glancing": 4283,
      "rejoicing": 4284,
      "steadfast": 4285,
      "ableness": 4286,
      "professed": 4287,
      "strict": 4288,
      "striking": 4289,
      "examined": 4290,
      "examining": 4291,
      "prevail": 4292,
      "prospects": 4293,
      "holder": 4294,
      "happens": 4295,
      "supported": 4296,
      "hints": 4297,
      "score": 4298,
      "leads": 4299,
      "defective": 4300,
      "excessive": 4301,
      "gratefully": 4302,
      "strangers": 4303,
      "quickly": 4304,
      "recommendation": 4305,
      "shews": 4306,
      "shewing": 4307,
      "faults": 4308,
      "gravely": 4309,
      "decidedly": 4310,
      "drive": 4311,
      "driving": 4312,
      "furnish": 4313,
      "conjectures": 4314,
      "displayed": 4315,
      "succeeding": 4316,
      "flattering": 4317,
      "debt": 4318,
      "clearly": 4319,
      "bride": 4320,
      "briefly": 4321,
      "higher": 4322,
      "defy": 4323,
      "sunk": 4324,
      "advance": 4325,
      "exclaiming": 4326,
      "fronted": 4327,
      "preserved": 4328,
      "disguise": 4329,
      "suspicions": 4330,
      "hastened": 4331,
      "inconvenient": 4332,
      "rejected": 4333,
      "encouraging": 4334,
      "abominably": 4335,
      "pretending": 4336,
      "voluntary": 4337,
      "fifteen": 4338,
      "mama": 4339,
      "studying": 4340,
      "impul": 4341,
      "impud": 4342,
      "indirect": 4343,
      "benevol": 4344,
      "benefited": 4345,
      "travellers": 4346,
      "blessed": 4347,
      "blessing": 4348,
      "attendance": 4349,
      "apologise": 4350,
      "errors": 4351,
      "exist": 4352,
      "sickly": 4353,
      "military": 4354,
      "practice": 4355,
      "attribute": 4356,
      "contrivance": 4357,
      "distinguish": 4358,
      "carrying": 4359,
      "cordiality": 4360,
      "complaints": 4361,
      "calmness": 4362,
      "ridiculous": 4363,
      "pens": 4364,
      "animation": 4365,
      "stupid": 4366,
      "stupidity": 4367,
      "ceremon": 4368,
      "suggest": 4369,
      "insensible": 4370,
      "sports": 4371,
      "intelligent": 4372,
      "damages": 4373,
      "killed": 4374,
      "xiii": 4375,
      "infamy": 4376,
      "infamous": 4377,
      "widely": 4378,
      "converse": 4379,
      "faith": 4380,
      "promote": 4381,
      "extravagance": 4382,
      "extravagant": 4383,
      "requirements": 4384,
      "witnessed": 4385,
      "cruelty": 4386,
      "scruples": 4387,
      "fatigue": 4388,
      "fatigued": 4389,
      "camp": 4390,
      "dirty": 4391,
      "sleep": 4392,
      "salutation": 4393,
      "injured": 4394,
      "wilfully": 4395,
      "deliberation": 4396,
      "sharp": 4397,
      "grandeur": 4398,
      "patronage": 4399,
      "calculated": 4400,
      "available": 4401,
      "jealousy": 4402,
      "announce": 4403,
      "betrayed": 4404,
      "apartment": 4405,
      "cherished": 4406,
      "flutter": 4407,
      "slowly": 4408,
      "infinitely": 4409,
      "started": 4410,
      "experienced": 4411,
      "execution": 4412,
      "previous": 4413,
      "pretensions": 4414,
      "discern": 4415,
      "affability": 4416,
      "transcri": 4417,
      "pleasanter": 4418,
      "script": 4419,
      "anticipated": 4420,
      "critical": 4421,
      "obstinate": 4422,
      "honestly": 4423,
      "narrow": 4424,
      "sincerity": 4425,
      "hackney": 4426,
      "amidst": 4427,
      "extensive": 4428,
      "frankness": 4429,
      "preceding": 4430,
      "protesting": 4431,
      "imputed": 4432,
      "shrubbery": 4433,
      "divided": 4434,
      "incumbent": 4435,
      "captiv": 4436,
      "guardians": 4437,
      "simpleton": 4438,
      "splendid": 4439,
      "freedom": 4440,
      "middle": 4441,
      "phaeton": 4442,
      "vouch": 4443,
      "valley": 4444,
      "heavy": 4445,
      "thursday": 4446,
      "forcibly": 4447,
      "delivered": 4448,
      "confirmed": 4449,
      "contemplation": 4450,
      "unpardonable": 4451,
      "quadrille": 4452,
      "prodigi": 4453,
      "captain": 4454,
      "michael": 4455,
      "gravity": 4456,
      "activity": 4457,
      "newcastle": 4458,
      "occurrences": 4459,
      "\"--": 4460,
      "ale": 4461,
      "athing": 4462,
      "bon": 4463,
      "boun": 4464,
      "based": 4465,
      "cent": 4466,
      "cdo": 4467,
      "cable": 4468,
      "cus": 4469,
      "city": 4470,
      "cry": 4471,
      "cended": 4472,
      "ds": 4473,
      "dow": 4474,
      "dity": 4475,
      "dup": 4476,
      "dying": 4477,
      "daily": 4478,
      "eel": 4479,
      "elly": 4480,
      "etor": 4481,
      "eger": 4482,
      "fly": 4483,
      "fur": 4484,
      "flight": 4485,
      "faced": 4486,
      "gar": 4487,
      "gould": 4488,
      "gay": 4489,
      "gro": 4490,
      "gros": 4491,
      "gross": 4492,
      "htm": 4493,
      "ip": 4494,
      "ix": 4495,
      "ier": 4496,
      "iation": 4497,
      "ired": 4498,
      "itor": 4499,
      "iatures": 4500,
      "kis": 4501,
      "keness": 4502,
      "mant": 4503,
      "mouth": 4504,
      "nal": 4505,
      "nup": 4506,
      "nings": 4507,
      "oted": 4508,
      "olive": 4509,
      "oting": 4510,
      "pom": 4511,
      "pad": 4512,
      "pment": 4513,
      "pous": 4514,
      "pages": 4515,
      "poul": 4516,
      "rou": 4517,
      "sley": 4518,
      "swell": 4519,
      "swee": 4520,
      "slin": 4521,
      "sgate": 4522,
      "skill": 4523,
      "tis": 4524,
      "tid": 4525,
      "treas": 4526,
      "tition": 4527,
      "uary": 4528,
      "vul": 4529,
      "vast": 4530,
      "whim": 4531,
      "wine": 4532,
      "xv": 4533,
      "xiv": 4534,
      "zz": 4535,
      "zip": 4536,
      "inno": 4537,
      "inct": 4538,
      "intr": 4539,
      "incess": 4540,
      "incivility": 4541,
      "insupport": 4542,
      "invaluable": 4543,
      "inhabit": 4544,
      "indol": 4545,
      "ancle": 4546,
      "reen": 4547,
      "reve": 4548,
      "rever": 4549,
      "reck": 4550,
      "remed": 4551,
      "reated": 4552,
      "revo": 4553,
      "reta": 4554,
      "reprehen": 4555,
      "review": 4556,
      "research": 4557,
      "retired": 4558,
      "reluct": 4559,
      "rewarded": 4560,
      "ons": 4561,
      "ony": 4562,
      "erous": 4563,
      "thly": 4564,
      "ening": 4565,
      "enab": 4566,
      "enes": 4567,
      "enest": 4568,
      "ensed": 4569,
      "ensive": 4570,
      "encounter": 4571,
      "envelope": 4572,
      "atious": 4573,
      "attor": 4574,
      "attered": 4575,
      "atively": 4576,
      "attracted": 4577,
      "top": 4578,
      "total": 4579,
      "isy": 4580,
      "asper": 4581,
      "ascertain": 4582,
      "ascended": 4583,
      "andalous": 4584,
      "belonged": 4585,
      "beholding": 4586,
      "ari": 4587,
      "army": 4588,
      "itute": 4589,
      "itality": 4590,
      "ornam": 4591,
      "hair": 4592,
      "haught": 4593,
      "lewis": 4594,
      "lease": 4595,
      "noise": 4596,
      "noisy": 4597,
      "stir": 4598,
      "stro": 4599,
      "stif": 4600,
      "stout": 4601,
      "stately": 4602,
      "stating": 4603,
      "seven": 4604,
      "seren": 4605,
      "secur": 4606,
      "omer": 4607,
      "widow": 4608,
      "changing": 4609,
      "liable": 4610,
      "liking": 4611,
      "liating": 4612,
      "liability": 4613,
      "ligence": 4614,
      "likeness": 4615,
      "hip": 4616,
      "entity": 4617,
      "entious": 4618,
      "forgiven": 4619,
      "forgiving": 4620,
      "defi": 4621,
      "deject": 4622,
      "deign": 4623,
      "detained": 4624,
      "deeper": 4625,
      "decease": 4626,
      "notions": 4627,
      "neat": 4628,
      "weary": 4629,
      "wealth": 4630,
      "cting": 4631,
      "ctive": 4632,
      "sume": 4633,
      "suited": 4634,
      "withdrawn": 4635,
      "thern": 4636,
      "alliance": 4637,
      "adap": 4638,
      "adorned": 4639,
      "soli": 4640,
      "soever": 4641,
      "ride": 4642,
      "ries": 4643,
      "conqu": 4644,
      "concept": 4645,
      "conquest": 4646,
      "constru": 4647,
      "consist": 4648,
      "concise": 4649,
      "fetch": 4650,
      "abusing": 4651,
      "ague": 4652,
      "union": 4653,
      "unconcern": 4654,
      "unsettled": 4655,
      "unfeeling": 4656,
      "ungenerous": 4657,
      "unconsci": 4658,
      "unreserved": 4659,
      "unhappily": 4660,
      "unluckily": 4661,
      "undeserving": 4662,
      "unfortunately": 4663,
      "amed": 4664,
      "amoun": 4665,
      "ows": 4666,
      "owal": 4667,
      "pool": 4668,
      "powered": 4669,
      "compr": 4670,
      "competition": 4671,
      "muslin": 4672,
      "tier": 4673,
      "tials": 4674,
      "ticoat": 4675,
      "quet": 4676,
      "save": 4677,
      "saved": 4678,
      "saving": 4679,
      "exhib": 4680,
      "explicit": 4681,
      "keenest": 4682,
      "lotter": 4683,
      "anywhere": 4684,
      "perfection": 4685,
      "performer": 4686,
      "permitted": 4687,
      "fru": 4688,
      "acced": 4689,
      "accur": 4690,
      "urgent": 4691,
      "dole": 4692,
      "dock": 4693,
      "presum": 4694,
      "preaching": 4695,
      "coar": 4696,
      "cook": 4697,
      "cool": 4698,
      "propose": 4699,
      "procur": 4700,
      "dispos": 4701,
      "disconcer": 4702,
      "disrespect": 4703,
      "disengaged": 4704,
      "discredit": 4705,
      "distrust": 4706,
      "discomposure": 4707,
      "discontented": 4708,
      "distracted": 4709,
      "dismissed": 4710,
      "outside": 4711,
      "implied": 4712,
      "impartial": 4713,
      "misunderstand": 4714,
      "mischief": 4715,
      "misunderstood": 4716,
      "odious": 4717,
      "foot": 4718,
      "hot": 4719,
      "hosp": 4720,
      "sily": 4721,
      ",\"--": 4722,
      "user": 4723,
      "usions": 4724,
      "ulity": 4725,
      "mail": 4726,
      "whence": 4727,
      "mill": 4728,
      "fic": 4729,
      "file": 4730,
      "fight": 4731,
      "vii": 4732,
      "villy": 4733,
      "viii": 4734,
      "canv": 4735,
      "tract": 4736,
      "cks": 4737,
      "died": 4738,
      "divide": 4739,
      "diversion": 4740,
      "diverted": 4741,
      "anecdo": 4742,
      "sisterly": 4743,
      "owns": 4744,
      "owned": 4745,
      "everybody": 4746,
      "cies": 4747,
      "civilly": 4748,
      "placing": 4749,
      "plague": 4750,
      "green": 4751,
      "upper": 4752,
      "spec": 4753,
      "special": 4754,
      "audi": 4755,
      "meditated": 4756,
      "meditating": 4757,
      "afternoon": 4758,
      "?\"--": 4759,
      "happier": 4760,
      "deriv": 4761,
      "grity": 4762,
      "frivol": 4763,
      "wicked": 4764,
      "rent": 4765,
      "render": 4766,
      "oppose": 4767,
      "opposition": 4768,
      "june": 4769,
      "positive": 4770,
      "acting": 4771,
      "scenes": 4772,
      "scattered": 4773,
      "scandalous": 4774,
      "box": 4775,
      "bold": 4776,
      "reader": 4777,
      "formality": 4778,
      "dearly": 4779,
      "adds": 4780,
      "overlook": 4781,
      "overhear": 4782,
      "overcame": 4783,
      "overheard": 4784,
      "overlooked": 4785,
      "overthrown": 4786,
      "overpowered": 4787,
      "intoler": 4788,
      "thoughtless": 4789,
      "thoughtlessness": 4790,
      "mornings": 4791,
      "housemaid": 4792,
      "housekeeping": 4793,
      "earlier": 4794,
      "walker": 4795,
      "brain": 4796,
      "surmis": 4797,
      "surround": 4798,
      "offend": 4799,
      "offending": 4800,
      "offensive": 4801,
      "joke": 4802,
      "indelic": 4803,
      "sensical": 4804,
      "submit": 4805,
      "justly": 4806,
      "solitude": 4807,
      "attentively": 4808,
      "returns": 4809,
      "genteel": 4810,
      "gue": 4811,
      "guine": 4812,
      "agreeing": 4813,
      "speaks": 4814,
      "founded": 4815,
      "rested": 4816,
      "lovely": 4817,
      "acquies": 4818,
      "presents": 4819,
      "oftener": 4820,
      "farm": 4821,
      "writer": 4822,
      "merry": 4823,
      "generations": 4824,
      "relates": 4825,
      "relative": 4826,
      "matlock": 4827,
      "objecting": 4828,
      "epsom": 4829,
      "northern": 4830,
      "interview": 4831,
      "intermission": 4832,
      "handed": 4833,
      "momentary": 4834,
      "hereafter": 4835,
      "continual": 4836,
      "considerably": 4837,
      "easter": 4838,
      "easiness": 4839,
      "native": 4840,
      "uncles": 4841,
      "answering": 4842,
      "answerable": 4843,
      "raising": 4844,
      "anges": 4845,
      "respected": 4846,
      "respecting": 4847,
      "settling": 4848,
      "conversing": 4849,
      "favourably": 4850,
      "courses": 4851,
      "silently": 4852,
      "resolutely": 4853,
      "denied": 4854,
      "inviting": 4855,
      "meanly": 4856,
      "collected": 4857,
      "promises": 4858,
      "blaming": 4859,
      "minutely": 4860,
      "miniatures": 4861,
      "hesitation": 4862,
      "hesitated": 4863,
      "hesitate": 4864,
      "repent": 4865,
      "reputation": 4866,
      "integrity": 4867,
      "official": 4868,
      "powerful": 4869,
      "later": 4870,
      "angel": 4871,
      "liveliest": 4872,
      "determination": 4873,
      "list": 4874,
      ";--\"": 4875,
      "carefully": 4876,
      "accounts": 4877,
      "accounting": 4878,
      "cheap": 4879,
      "repetition": 4880,
      "listener": 4881,
      "descent": 4882,
      "descended": 4883,
      "copied": 4884,
      "rude": 4885,
      "wonders": 4886,
      "wonderful": 4887,
      "confident": 4888,
      "fearing": 4889,
      "shoot": 4890,
      "poorly": 4891,
      "seeming": 4892,
      "openness": 4893,
      "keeps": 4894,
      "addressing": 4895,
      "conceive": 4896,
      "bearing": 4897,
      "offering": 4898,
      "excite": 4899,
      "judging": 4900,
      "claimed": 4901,
      "acknowledgment": 4902,
      "disappointing": 4903,
      "affectation": 4904,
      "approved": 4905,
      "extended": 4906,
      "remove": 4907,
      "removing": 4908,
      "assume": 4909,
      "secondly": 4910,
      "planned": 4911,
      "tumult": 4912,
      "stretch": 4913,
      "pleasantness": 4914,
      "horrid": 4915,
      "puzz": 4916,
      "slighted": 4917,
      "slightest": 4918,
      "faces": 4919,
      "excepting": 4920,
      "admirable": 4921,
      "complimented": 4922,
      "resented": 4923,
      "replying": 4924,
      "learned": 4925,
      "needed": 4926,
      "signify": 4927,
      "reflected": 4928,
      "singing": 4929,
      "questioned": 4930,
      "successful": 4931,
      "paused": 4932,
      "varied": 4933,
      "decis": 4934,
      "decent": 4935,
      "comprehended": 4936,
      "grief": 4937,
      "regrets": 4938,
      "contracted": 4939,
      "quartered": 4940,
      "effects": 4941,
      "effectually": 4942,
      "regimentals": 4943,
      "publicly": 4944,
      "built": 4945,
      "busily": 4946,
      "violence": 4947,
      "possessed": 4948,
      "excellence": 4949,
      "employe": 4950,
      "confession": 4951,
      "avowed": 4952,
      "avowal": 4953,
      "payments": 4954,
      "recovery": 4955,
      "negative": 4956,
      "comparative": 4957,
      "comparatively": 4958,
      "willingness": 4959,
      "griev": 4960,
      "grieve": 4961,
      "grievous": 4962,
      "borrow": 4963,
      "bordering": 4964,
      "reserves": 4965,
      "suitableness": 4966,
      "admirer": 4967,
      "tendency": 4968,
      "steadily": 4969,
      "separated": 4970,
      "constantly": 4971,
      "amusements": 4972,
      "accomplishment": 4973,
      "authorised": 4974,
      "partners": 4975,
      "communicate": 4976,
      "communicated": 4977,
      "waiter": 4978,
      "convenience": 4979,
      "punish": 4980,
      "instructions": 4981,
      "examination": 4982,
      "bowed": 4983,
      "fallen": 4984,
      "falling": 4985,
      "pertur": 4986,
      "objectionable": 4987,
      "quickness": 4988,
      "creatures": 4989,
      "rationally": 4990,
      "anties": 4991,
      "despise": 4992,
      "despised": 4993,
      "despaired": 4994,
      "alternative": 4995,
      "solicit": 4996,
      "performing": 4997,
      "faulty": 4998,
      "applicable": 4999
    },
    "merges": [
      [
        "h",
        "e"
      ],
      [
        "i",
        "n"
      ],
      [
        "a",
        "n"
      ],
      [
        "t",
        "he"
      ],
      [
        "r",
        "e"
      ],
      [
        "o",
        "u"
      ],
      [
        "o",
        "n"
      ],
      [
        "e",
        "r"
      ],
      [
        "t",
        "h"
      ],
      [
        "e",
        "n"
      ],
      [
        "a",
        "t"
      ],
      [
        "t",
        "o"
      ],
      [
        "i",
        "s"
      ],
      [
        "a",
        "s"
      ],
      [
        "e",
        "d"
      ],
      [
        "o",
        "f"
      ],
      [
        "in",
        "g"
      ],
      [
        "an",
        "d"
      ],
      [
        "b",
        "e"
      ],
      [
        "a",
        "r"
      ],
      [
        "i",
        "t"
      ],
      [
        "o",
        "r"
      ],
      [
        "h",
        "a"
      ],
      [
        "l",
        "l"
      ],
      [
        "l",
        "e"
      ],
      [
        "n",
        "o"
      ],
      [
        "he",
        "r"
      ],
      [
        "s",
        "t"
      ],
      [
        "s",
        "e"
      ],
      [
        "o",
        "m"
      ],
      [
        "w",
        "i"
      ],
      [
        "y",
        "ou"
      ],
      [
        "l",
        "y"
      ],
      [
        "c",
        "h"
      ],
      [
        "c",
        "e"
      ],
      [
        "l",
        "i"
      ],
      [
        "i",
        "on"
      ],
      [
        "v",
        "e"
      ],
      [
        "w",
        "as"
      ],
      [
        "h",
        "i"
      ],
      [
        "en",
        "t"
      ],
      [
        "s",
        "he"
      ],
      [
        "f",
        "or"
      ],
      [
        "v",
        "er"
      ],
      [
        "d",
        "e"
      ],
      [
        "l",
        "d"
      ],
      [
        "no",
        "t"
      ],
      [
        "th",
        "at"
      ],
      [
        "n",
        "e"
      ],
      [
        "g",
        "h"
      ],
      [
        "w",
        "e"
      ],
      [
        "u",
        "t"
      ],
      [
        "c",
        "t"
      ],
      [
        "m",
        "e"
      ],
      [
        "s",
        "u"
      ],
      [
        "a",
        "l"
      ],
      [
        "wi",
        "th"
      ],
      [
        "t",
        "er"
      ],
      [
        "h",
        "is"
      ],
      [
        "the",
        "r"
      ],
      [
        "ou",
        "ld"
      ],
      [
        "a",
        "ll"
      ],
      [
        "a",
        "y"
      ],
      [
        "s",
        "s"
      ],
      [
        "ha",
        "d"
      ],
      [
        "i",
        "r"
      ],
      [
        "m",
        "r"
      ],
      [
        "w",
        "h"
      ],
      [
        "a",
        "d"
      ],
      [
        "i",
        "d"
      ],
      [
        "s",
        "o"
      ],
      [
        "r",
        "o"
      ],
      [
        "b",
        "ut"
      ],
      [
        "r",
        "i"
      ],
      [
        "c",
        "on"
      ],
      [
        "f",
        "e"
      ],
      [
        ".",
        "\""
      ],
      [
        "a",
        "b"
      ],
      [
        "a",
        "g"
      ],
      [
        "p",
        "e"
      ],
      [
        "hi",
        "m"
      ],
      [
        "u",
        "n"
      ],
      [
        "ha",
        "ve"
      ],
      [
        "a",
        "m"
      ],
      [
        "o",
        "w"
      ],
      [
        "m",
        "o"
      ],
      [
        "m",
        "y"
      ],
      [
        "gh",
        "t"
      ],
      [
        "ou",
        "r"
      ],
      [
        "ver",
        "y"
      ],
      [
        "a",
        "in"
      ],
      [
        "li",
        "z"
      ],
      [
        "e",
        "s"
      ],
      [
        "at",
        "ion"
      ],
      [
        "p",
        "o"
      ],
      [
        "c",
        "om"
      ],
      [
        "b",
        "y"
      ],
      [
        "-",
        "-"
      ],
      [
        "m",
        "u"
      ],
      [
        "a",
        "re"
      ],
      [
        "e",
        "liz"
      ],
      [
        "eliz",
        "a"
      ],
      [
        "t",
        "i"
      ],
      [
        "on",
        "e"
      ],
      [
        "w",
        "hi"
      ],
      [
        "q",
        "u"
      ],
      [
        "s",
        "a"
      ],
      [
        "be",
        "th"
      ],
      [
        "eliza",
        "beth"
      ],
      [
        "l",
        "f"
      ],
      [
        "e",
        "x"
      ],
      [
        "k",
        "e"
      ],
      [
        "l",
        "o"
      ],
      [
        "no",
        "w"
      ],
      [
        "the",
        "y"
      ],
      [
        "we",
        "re"
      ],
      [
        "an",
        "y"
      ],
      [
        "i",
        "f"
      ],
      [
        "p",
        "er"
      ],
      [
        "t",
        "e"
      ],
      [
        "f",
        "r"
      ],
      [
        "a",
        "c"
      ],
      [
        "w",
        "he"
      ],
      [
        "ar",
        "d"
      ],
      [
        "whi",
        "ch"
      ],
      [
        "u",
        "r"
      ],
      [
        "m",
        "ent"
      ],
      [
        "d",
        "o"
      ],
      [
        "se",
        "lf"
      ],
      [
        "wi",
        "ll"
      ],
      [
        "you",
        "r"
      ],
      [
        "p",
        "re"
      ],
      [
        "en",
        "d"
      ],
      [
        "c",
        "o"
      ],
      [
        "wh",
        "at"
      ],
      [
        "c",
        "ould"
      ],
      [
        "be",
        "en"
      ],
      [
        "p",
        "ro"
      ],
      [
        "fr",
        "om"
      ],
      [
        "ab",
        "le"
      ],
      [
        "th",
        "is"
      ],
      [
        "c",
        "y"
      ],
      [
        "an",
        "ce"
      ],
      [
        "d",
        "is"
      ],
      [
        "w",
        "ould"
      ],
      [
        "the",
        "m"
      ],
      [
        "om",
        "e"
      ],
      [
        "ou",
        "t"
      ],
      [
        "th",
        "ing"
      ],
      [
        "p",
        "ar"
      ],
      [
        "wh",
        "o"
      ],
      [
        "the",
        "ir"
      ],
      [
        "re",
        "d"
      ],
      [
        "g",
        "o"
      ],
      [
        "i",
        "m"
      ],
      [
        "the",
        "re"
      ],
      [
        "in",
        "e"
      ],
      [
        "m",
        "is"
      ],
      [
        "o",
        "d"
      ],
      [
        "d",
        "ar"
      ],
      [
        "f",
        "o"
      ],
      [
        "h",
        "o"
      ],
      [
        "s",
        "i"
      ],
      [
        "dar",
        "cy"
      ],
      [
        "a",
        "f"
      ],
      [
        ",",
        "\""
      ],
      [
        "c",
        "a"
      ],
      [
        "u",
        "s"
      ],
      [
        "at",
        "e"
      ],
      [
        "th",
        "ou"
      ],
      [
        "an",
        "t"
      ],
      [
        "sa",
        "id"
      ],
      [
        "k",
        "now"
      ],
      [
        "su",
        "ch"
      ],
      [
        "s",
        "ome"
      ],
      [
        "u",
        "l"
      ],
      [
        "in",
        "d"
      ],
      [
        "m",
        "a"
      ],
      [
        "g",
        "e"
      ],
      [
        "m",
        "an"
      ],
      [
        "it",
        "y"
      ],
      [
        "on",
        "g"
      ],
      [
        "whe",
        "n"
      ],
      [
        "ha",
        "p"
      ],
      [
        "le",
        "y"
      ],
      [
        "s",
        "is"
      ],
      [
        "m",
        "i"
      ],
      [
        "e",
        "ct"
      ],
      [
        "ou",
        "n"
      ],
      [
        "f",
        "a"
      ],
      [
        "v",
        "ed"
      ],
      [
        "b",
        "en"
      ],
      [
        "p",
        "le"
      ],
      [
        "s",
        "h"
      ],
      [
        "w",
        "ay"
      ],
      [
        "o",
        "ther"
      ],
      [
        "f",
        "i"
      ],
      [
        "ne",
        "t"
      ],
      [
        "it",
        "t"
      ],
      [
        "l",
        "ad"
      ],
      [
        "p",
        "r"
      ],
      [
        "mr",
        "s"
      ],
      [
        "v",
        "i"
      ],
      [
        "c",
        "an"
      ],
      [
        "th",
        "an"
      ],
      [
        "t",
        "r"
      ],
      [
        "se",
        "e"
      ],
      [
        "ben",
        "net"
      ],
      [
        "mo",
        "re"
      ],
      [
        "as",
        "t"
      ],
      [
        "mu",
        "ch"
      ],
      [
        "c",
        "k"
      ],
      [
        "ou",
        "s"
      ],
      [
        "mis",
        "s"
      ],
      [
        "m",
        "ar"
      ],
      [
        "a",
        "p"
      ],
      [
        "mu",
        "st"
      ],
      [
        "d",
        "i"
      ],
      [
        "b",
        "ing"
      ],
      [
        "en",
        "ce"
      ],
      [
        "an",
        "e"
      ],
      [
        "fo",
        "re"
      ],
      [
        "bing",
        "ley"
      ],
      [
        "o",
        "k"
      ],
      [
        "i",
        "ve"
      ],
      [
        "w",
        "or"
      ],
      [
        "j",
        "ect"
      ],
      [
        "u",
        "re"
      ],
      [
        "ag",
        "e"
      ],
      [
        "sis",
        "ter"
      ],
      [
        "ow",
        "n"
      ],
      [
        "j",
        "ane"
      ],
      [
        "e",
        "very"
      ],
      [
        "c",
        "i"
      ],
      [
        "p",
        "l"
      ],
      [
        "e",
        "t"
      ],
      [
        "v",
        "en"
      ],
      [
        "ct",
        "ion"
      ],
      [
        "d",
        "id"
      ],
      [
        "g",
        "re"
      ],
      [
        "all",
        "y"
      ],
      [
        "l",
        "ong"
      ],
      [
        "u",
        "p"
      ],
      [
        "e",
        "l"
      ],
      [
        "in",
        "k"
      ],
      [
        "mo",
        "st"
      ],
      [
        "ti",
        "me"
      ],
      [
        "c",
        "er"
      ],
      [
        "v",
        "ing"
      ],
      [
        "sh",
        "ould"
      ],
      [
        "d",
        "ay"
      ],
      [
        "a",
        "k"
      ],
      [
        "h",
        "as"
      ],
      [
        "t",
        "en"
      ],
      [
        "s",
        "pe"
      ],
      [
        "ne",
        "ver"
      ],
      [
        "we",
        "ll"
      ],
      [
        "co",
        "ll"
      ],
      [
        "i",
        "ly"
      ],
      [
        "w",
        "is"
      ],
      [
        "a",
        "u"
      ],
      [
        "m",
        "ed"
      ],
      [
        "h",
        "ow"
      ],
      [
        "al",
        "k"
      ],
      [
        "b",
        "le"
      ],
      [
        "s",
        "er"
      ],
      [
        "af",
        "ter"
      ],
      [
        "?",
        "\""
      ],
      [
        "th",
        "ink"
      ],
      [
        "b",
        "er"
      ],
      [
        "o",
        "b"
      ],
      [
        "it",
        "e"
      ],
      [
        "hap",
        "p"
      ],
      [
        "ple",
        "as"
      ],
      [
        "d",
        "er"
      ],
      [
        "or",
        "t"
      ],
      [
        "lad",
        "y"
      ],
      [
        "so",
        "on"
      ],
      [
        "be",
        "fore"
      ],
      [
        "ag",
        "ain"
      ],
      [
        "in",
        "t"
      ],
      [
        "on",
        "ly"
      ],
      [
        "t",
        "ter"
      ],
      [
        "at",
        "t"
      ],
      [
        "her",
        "self"
      ],
      [
        "thou",
        "gh"
      ],
      [
        "in",
        "s"
      ],
      [
        "ch",
        "ar"
      ],
      [
        "g",
        "r"
      ],
      [
        "p",
        "t"
      ],
      [
        "ur",
        "n"
      ],
      [
        "l",
        "ed"
      ],
      [
        "e",
        "st"
      ],
      [
        "s",
        "ha"
      ],
      [
        "t",
        "ain"
      ],
      [
        "go",
        "od"
      ],
      [
        "m",
        "ay"
      ],
      [
        "s",
        "ay"
      ],
      [
        "n",
        "er"
      ],
      [
        "s",
        "ent"
      ],
      [
        "ha",
        "m"
      ],
      [
        "s",
        "p"
      ],
      [
        "u",
        "se"
      ],
      [
        "mi",
        "ght"
      ],
      [
        "f",
        "ri"
      ],
      [
        "t",
        "urn"
      ],
      [
        "wi",
        "ck"
      ],
      [
        "he",
        "d"
      ],
      [
        "p",
        "li"
      ],
      [
        "c",
        "as"
      ],
      [
        "re",
        "n"
      ],
      [
        "wick",
        "ham"
      ],
      [
        "o",
        "p"
      ],
      [
        "l",
        "u"
      ],
      [
        "par",
        "t"
      ],
      [
        "oun",
        "d"
      ],
      [
        "itt",
        "le"
      ],
      [
        "l",
        "ittle"
      ],
      [
        ".",
        "--"
      ],
      [
        "j",
        "u"
      ],
      [
        "po",
        "s"
      ],
      [
        "re",
        "e"
      ],
      [
        "ne",
        "ss"
      ],
      [
        "fri",
        "end"
      ],
      [
        "ri",
        "ed"
      ],
      [
        "a",
        "ct"
      ],
      [
        "li",
        "e"
      ],
      [
        "lo",
        "ok"
      ],
      [
        "gre",
        "at"
      ],
      [
        "b",
        "our"
      ],
      [
        "i",
        "ll"
      ],
      [
        "an",
        "s"
      ],
      [
        "no",
        "thing"
      ],
      [
        "li",
        "ke"
      ],
      [
        "coll",
        "ins"
      ],
      [
        "with",
        "out"
      ],
      [
        "the",
        "n"
      ],
      [
        "be",
        "ing"
      ],
      [
        "you",
        "n"
      ],
      [
        "for",
        "t"
      ],
      [
        "su",
        "re"
      ],
      [
        "ing",
        "s"
      ],
      [
        "f",
        "am"
      ],
      [
        "g",
        "ard"
      ],
      [
        "i",
        "es"
      ],
      [
        "ly",
        "di"
      ],
      [
        "fe",
        "el"
      ],
      [
        "lydi",
        "a"
      ],
      [
        "e",
        "ver"
      ],
      [
        "s",
        "c"
      ],
      [
        "ma",
        "ke"
      ],
      [
        "f",
        "ir"
      ],
      [
        "a",
        "ch"
      ],
      [
        "b",
        "o"
      ],
      [
        "ou",
        "gh"
      ],
      [
        "au",
        "gh"
      ],
      [
        "it",
        "s"
      ],
      [
        "le",
        "ss"
      ],
      [
        "sha",
        "ll"
      ],
      [
        "e",
        "ven"
      ],
      [
        "re",
        "ad"
      ],
      [
        "at",
        "ed"
      ],
      [
        "w",
        "ard"
      ],
      [
        "for",
        "m"
      ],
      [
        "r",
        "y"
      ],
      [
        "he",
        "ar"
      ],
      [
        "de",
        "ar"
      ],
      [
        "ro",
        "om"
      ],
      [
        "youn",
        "g"
      ],
      [
        "c",
        "ed"
      ],
      [
        "ad",
        "d"
      ],
      [
        "be",
        "lie"
      ],
      [
        "w",
        "o"
      ],
      [
        "ho",
        "pe"
      ],
      [
        "fam",
        "ily"
      ],
      [
        "a",
        "ve"
      ],
      [
        "o",
        "ver"
      ],
      [
        "ion",
        "s"
      ],
      [
        "f",
        "ul"
      ],
      [
        "ar",
        "y"
      ],
      [
        "g",
        "i"
      ],
      [
        "u",
        "m"
      ],
      [
        "c",
        "l"
      ],
      [
        "s",
        "hi"
      ],
      [
        "g",
        "ive"
      ],
      [
        "in",
        "to"
      ],
      [
        "thou",
        "ght"
      ],
      [
        "fir",
        "st"
      ],
      [
        "l",
        "t"
      ],
      [
        "as",
        "s"
      ],
      [
        "s",
        "at"
      ],
      [
        "ine",
        "ss"
      ],
      [
        "to",
        "o"
      ],
      [
        "ne",
        "w"
      ],
      [
        "fe",
        "ct"
      ],
      [
        "cer",
        "tain"
      ],
      [
        "man",
        "ner"
      ],
      [
        "com",
        "e"
      ],
      [
        "m",
        "or"
      ],
      [
        "c",
        "oun"
      ],
      [
        "su",
        "p"
      ],
      [
        "a",
        "ce"
      ],
      [
        "h",
        "ou"
      ],
      [
        "mo",
        "ther"
      ],
      [
        "pre",
        "ss"
      ],
      [
        "fa",
        "ther"
      ],
      [
        "hou",
        "se"
      ],
      [
        "e",
        "ar"
      ],
      [
        "augh",
        "ter"
      ],
      [
        "t",
        "wo"
      ],
      [
        "we",
        "ver"
      ],
      [
        "ho",
        "wever"
      ],
      [
        "d",
        "aughter"
      ],
      [
        "is",
        "e"
      ],
      [
        "le",
        "tter"
      ],
      [
        "ab",
        "out"
      ],
      [
        "re",
        "ce"
      ],
      [
        "st",
        "r"
      ],
      [
        "en",
        "g"
      ],
      [
        "ma",
        "de"
      ],
      [
        "p",
        "ort"
      ],
      [
        "w",
        "alk"
      ],
      [
        "b",
        "r"
      ],
      [
        "y",
        "es"
      ],
      [
        "li",
        "ght"
      ],
      [
        "pe",
        "ct"
      ],
      [
        "him",
        "self"
      ],
      [
        "l",
        "ast"
      ],
      [
        "ther",
        "ine"
      ],
      [
        "ss",
        "i"
      ],
      [
        "fe",
        "ren"
      ],
      [
        "ca",
        "therine"
      ],
      [
        "su",
        "r"
      ],
      [
        "i",
        "c"
      ],
      [
        "is",
        "h"
      ],
      [
        "of",
        "f"
      ],
      [
        "po",
        "ssi"
      ],
      [
        "way",
        "s"
      ],
      [
        "pli",
        "ed"
      ],
      [
        "j",
        "o"
      ],
      [
        "par",
        "ti"
      ],
      [
        "c",
        "our"
      ],
      [
        "m",
        "any"
      ],
      [
        "t",
        "ed"
      ],
      [
        "in",
        "de"
      ],
      [
        "a",
        "way"
      ],
      [
        "on",
        "d"
      ],
      [
        "al",
        "ways"
      ],
      [
        "a",
        "w"
      ],
      [
        "be",
        "g"
      ],
      [
        "con",
        "t"
      ],
      [
        "i",
        "ous"
      ],
      [
        "n",
        "ing"
      ],
      [
        "t",
        "t"
      ],
      [
        "re",
        "as"
      ],
      [
        "un",
        "der"
      ],
      [
        "ap",
        "pe"
      ],
      [
        "c",
        "le"
      ],
      [
        "c",
        "ul"
      ],
      [
        "s",
        "en"
      ],
      [
        "su",
        "b"
      ],
      [
        "whe",
        "re"
      ],
      [
        "can",
        "not"
      ],
      [
        "ju",
        "st"
      ],
      [
        "p",
        "ass"
      ],
      [
        "s",
        "on"
      ],
      [
        "so",
        "l"
      ],
      [
        "i",
        "l"
      ],
      [
        "v",
        "o"
      ],
      [
        "ce",
        "ss"
      ],
      [
        "wis",
        "h"
      ],
      [
        "att",
        "ent"
      ],
      [
        "g",
        "n"
      ],
      [
        "v",
        "is"
      ],
      [
        "in",
        "er"
      ],
      [
        "re",
        "turn"
      ],
      [
        "t",
        "alk"
      ],
      [
        "ation",
        "s"
      ],
      [
        "g",
        "ent"
      ],
      [
        "i",
        "ther"
      ],
      [
        "p",
        "ri"
      ],
      [
        "ri",
        "age"
      ],
      [
        "com",
        "m"
      ],
      [
        "are",
        "d"
      ],
      [
        "ex",
        "pect"
      ],
      [
        "in",
        "ed"
      ],
      [
        "ca",
        "me"
      ],
      [
        "re",
        "ss"
      ],
      [
        "te",
        "ll"
      ],
      [
        "dis",
        "t"
      ],
      [
        "en",
        "ough"
      ],
      [
        "k",
        "ind"
      ],
      [
        "n",
        "i"
      ],
      [
        "wor",
        "k"
      ],
      [
        "d",
        "u"
      ],
      [
        "o",
        "c"
      ],
      [
        "pleas",
        "ure"
      ],
      [
        "li",
        "c"
      ],
      [
        "un",
        "t"
      ],
      [
        "g",
        "u"
      ],
      [
        "t",
        "a"
      ],
      [
        "re",
        "plied"
      ],
      [
        "en",
        "er"
      ],
      [
        "fe",
        "lt"
      ],
      [
        "ag",
        "ree"
      ],
      [
        "sa",
        "w"
      ],
      [
        "spe",
        "ak"
      ],
      [
        "gard",
        "iner"
      ],
      [
        "ward",
        "s"
      ],
      [
        "f",
        "ound"
      ],
      [
        "ll",
        "y"
      ],
      [
        "si",
        "de"
      ],
      [
        "spe",
        "ct"
      ],
      [
        "!",
        "\""
      ],
      [
        "k",
        "ed"
      ],
      [
        "re",
        "st"
      ],
      [
        "ut",
        "en"
      ],
      [
        "lo",
        "ve"
      ],
      [
        "te",
        "m"
      ],
      [
        "possi",
        "ble"
      ],
      [
        "g",
        "ed"
      ],
      [
        "de",
        "a"
      ],
      [
        "ex",
        "press"
      ],
      [
        "ac",
        "qu"
      ],
      [
        "pre",
        "sent"
      ],
      [
        "e",
        "ld"
      ],
      [
        "g",
        "uten"
      ],
      [
        "s",
        "ir"
      ],
      [
        "v",
        "our"
      ],
      [
        "of",
        "ten"
      ],
      [
        "ber",
        "g"
      ],
      [
        "guten",
        "berg"
      ],
      [
        "ter",
        "m"
      ],
      [
        "po",
        "int"
      ],
      [
        "vi",
        "l"
      ],
      [
        "f",
        "ar"
      ],
      [
        "w",
        "r"
      ],
      [
        "z",
        "y"
      ],
      [
        "liz",
        "zy"
      ],
      [
        "b",
        "ro"
      ],
      [
        "m",
        "er"
      ],
      [
        "my",
        "self"
      ],
      [
        "po",
        "se"
      ],
      [
        "tr",
        "u"
      ],
      [
        "happ",
        "y"
      ],
      [
        "inde",
        "ed"
      ],
      [
        "sub",
        "ject"
      ],
      [
        "c",
        "ar"
      ],
      [
        "i",
        "ved"
      ],
      [
        "o",
        "h"
      ],
      [
        "ti",
        "ll"
      ],
      [
        "qu",
        "ite"
      ],
      [
        "d",
        "one"
      ],
      [
        "g",
        "ener"
      ],
      [
        "ha",
        "ving"
      ],
      [
        "end",
        "ed"
      ],
      [
        "od",
        "y"
      ],
      [
        "ate",
        "ly"
      ],
      [
        "i",
        "ce"
      ],
      [
        "re",
        "l"
      ],
      [
        "ou",
        "ght"
      ],
      [
        "gent",
        "le"
      ],
      [
        "b",
        "ody"
      ],
      [
        "m",
        "at"
      ],
      [
        "v",
        "ent"
      ],
      [
        "be",
        "tter"
      ],
      [
        "con",
        "s"
      ],
      [
        "c",
        "ried"
      ],
      [
        "e",
        "f"
      ],
      [
        "w",
        "n"
      ],
      [
        "acqu",
        "ain"
      ],
      [
        "o",
        "se"
      ],
      [
        "he",
        "ard"
      ],
      [
        "ri",
        "ght"
      ],
      [
        "lo",
        "t"
      ],
      [
        "re",
        "ally"
      ],
      [
        "pro",
        "ject"
      ],
      [
        "ca",
        "use"
      ],
      [
        "belie",
        "ve"
      ],
      [
        "u",
        "ne"
      ],
      [
        "if",
        "feren"
      ],
      [
        "pl",
        "ace"
      ],
      [
        "long",
        "bour"
      ],
      [
        "ob",
        "ject"
      ],
      [
        "feel",
        "ings"
      ],
      [
        "ta",
        "ke"
      ],
      [
        "longbour",
        "n"
      ],
      [
        "c",
        "all"
      ],
      [
        "fe",
        "ction"
      ],
      [
        "ex",
        "ce"
      ],
      [
        "do",
        "es"
      ],
      [
        "co",
        "l"
      ],
      [
        "e",
        "p"
      ],
      [
        "n",
        "or"
      ],
      [
        "w",
        "ant"
      ],
      [
        "in",
        "ter"
      ],
      [
        "char",
        "lot"
      ],
      [
        "charlot",
        "te"
      ],
      [
        "a",
        "unt"
      ],
      [
        "i",
        "am"
      ],
      [
        "in",
        "ce"
      ],
      [
        "wh",
        "om"
      ],
      [
        "com",
        "p"
      ],
      [
        "will",
        "iam"
      ],
      [
        "sat",
        "is"
      ],
      [
        "reas",
        "on"
      ],
      [
        "h",
        "and"
      ],
      [
        "k",
        "ing"
      ],
      [
        "m",
        "on"
      ],
      [
        "m",
        "om"
      ],
      [
        "t",
        "ak"
      ],
      [
        "v",
        "ant"
      ],
      [
        "w",
        "om"
      ],
      [
        "w",
        "ent"
      ],
      [
        "it",
        "u"
      ],
      [
        "for",
        "d"
      ],
      [
        "ver",
        "s"
      ],
      [
        "lu",
        "cas"
      ],
      [
        "mom",
        "ent"
      ],
      [
        "g",
        "ir"
      ],
      [
        "m",
        "ber"
      ],
      [
        "af",
        "fection"
      ],
      [
        "med",
        "i"
      ],
      [
        "parti",
        "cul"
      ],
      [
        "bro",
        "ther"
      ],
      [
        "gir",
        "l"
      ],
      [
        "particul",
        "ar"
      ],
      [
        "a",
        "id"
      ],
      [
        "s",
        "to"
      ],
      [
        "re",
        "qu"
      ],
      [
        "ll",
        "ow"
      ],
      [
        "whi",
        "le"
      ],
      [
        "d",
        "own"
      ],
      [
        "e",
        "ss"
      ],
      [
        "le",
        "t"
      ],
      [
        "ab",
        "ly"
      ],
      [
        "st",
        "and"
      ],
      [
        "wor",
        "d"
      ],
      [
        "t",
        "ance"
      ],
      [
        "in",
        "u"
      ],
      [
        "re",
        "f"
      ],
      [
        "it",
        "ed"
      ],
      [
        "who",
        "le"
      ],
      [
        "mor",
        "ning"
      ],
      [
        "s",
        "ince"
      ],
      [
        "x",
        "t"
      ],
      [
        "he",
        "re"
      ],
      [
        "is",
        "ed"
      ],
      [
        "se",
        "en"
      ],
      [
        "id",
        "er"
      ],
      [
        "fi",
        "eld"
      ],
      [
        "v",
        "al"
      ],
      [
        "per",
        "hap"
      ],
      [
        "look",
        "ed"
      ],
      [
        "shi",
        "re"
      ],
      [
        "cont",
        "inu"
      ],
      [
        "appe",
        "ar"
      ],
      [
        "cons",
        "ider"
      ],
      [
        "perhap",
        "s"
      ],
      [
        "d",
        "in"
      ],
      [
        "e",
        "as"
      ],
      [
        "n",
        "at"
      ],
      [
        "t",
        "on"
      ],
      [
        "sister",
        "s"
      ],
      [
        "im",
        "medi"
      ],
      [
        "there",
        "fore"
      ],
      [
        "ci",
        "vil"
      ],
      [
        "et",
        "y"
      ],
      [
        "op",
        "in"
      ],
      [
        "a",
        "me"
      ],
      [
        "m",
        "ind"
      ],
      [
        "t",
        "we"
      ],
      [
        "in",
        "st"
      ],
      [
        "en",
        "ed"
      ],
      [
        "ha",
        "lf"
      ],
      [
        "st",
        "ill"
      ],
      [
        "de",
        "light"
      ],
      [
        "ge",
        "t"
      ],
      [
        "lad",
        "ies"
      ],
      [
        "up",
        "on"
      ],
      [
        "happ",
        "iness"
      ],
      [
        "even",
        "ing"
      ],
      [
        "f",
        "u"
      ],
      [
        "f",
        "ind"
      ],
      [
        "m",
        "en"
      ],
      [
        "t",
        "y"
      ],
      [
        "w",
        "er"
      ],
      [
        "y",
        "et"
      ],
      [
        "the",
        "se"
      ],
      [
        "to",
        "ge"
      ],
      [
        "ch",
        "i"
      ],
      [
        "ne",
        "ther"
      ],
      [
        "some",
        "thing"
      ],
      [
        "toge",
        "ther"
      ],
      [
        "nether",
        "field"
      ],
      [
        "f",
        "t"
      ],
      [
        "ne",
        "xt"
      ],
      [
        "fe",
        "w"
      ],
      [
        "un",
        "cle"
      ],
      [
        "ment",
        "s"
      ],
      [
        "itt",
        "y"
      ],
      [
        "char",
        "act"
      ],
      [
        "gr",
        "at"
      ],
      [
        "ans",
        "wer"
      ],
      [
        "bo",
        "th"
      ],
      [
        "certain",
        "ly"
      ],
      [
        "sur",
        "pr"
      ],
      [
        "charact",
        "er"
      ],
      [
        "k",
        "itty"
      ],
      [
        "s",
        "po"
      ],
      [
        "to",
        "ld"
      ],
      [
        "it",
        "ion"
      ],
      [
        "ve",
        "s"
      ],
      [
        "all",
        "ow"
      ],
      [
        "fo",
        "llow"
      ],
      [
        "add",
        "ed"
      ],
      [
        "in",
        "c"
      ],
      [
        "tr",
        "y"
      ],
      [
        "attent",
        "ion"
      ],
      [
        "d",
        "ou"
      ],
      [
        "s",
        "mi"
      ],
      [
        "re",
        "ly"
      ],
      [
        "to",
        "wards"
      ],
      [
        "sa",
        "me"
      ],
      [
        "pro",
        "b"
      ],
      [
        "ob",
        "ser"
      ],
      [
        "ent",
        "ly"
      ],
      [
        "con",
        "cer"
      ],
      [
        "per",
        "son"
      ],
      [
        "wor",
        "ld"
      ],
      [
        "pos",
        "ed"
      ],
      [
        "oc",
        "cas"
      ],
      [
        "!",
        "--"
      ],
      [
        "e",
        "m"
      ],
      [
        "h",
        "ome"
      ],
      [
        "mar",
        "riage"
      ],
      [
        "opin",
        "ion"
      ],
      [
        "dou",
        "b"
      ],
      [
        "h",
        "ur"
      ],
      [
        "r",
        "a"
      ],
      [
        "t",
        "m"
      ],
      [
        "y",
        "ear"
      ],
      [
        "an",
        "g"
      ],
      [
        "re",
        "spect"
      ],
      [
        "to",
        "wn"
      ],
      [
        "le",
        "ft"
      ],
      [
        "se",
        "tt"
      ],
      [
        "con",
        "vers"
      ],
      [
        "com",
        "ing"
      ],
      [
        "per",
        "fect"
      ],
      [
        "see",
        "med"
      ],
      [
        "shi",
        "p"
      ],
      [
        "rece",
        "ived"
      ],
      [
        "e",
        "ach"
      ],
      [
        "h",
        "our"
      ],
      [
        "is",
        "hed"
      ],
      [
        "one",
        "l"
      ],
      [
        "ment",
        "ion"
      ],
      [
        "know",
        "n"
      ],
      [
        "fa",
        "vour"
      ],
      [
        "mar",
        "ry"
      ],
      [
        "cour",
        "se"
      ],
      [
        "col",
        "onel"
      ],
      [
        "wom",
        "an"
      ],
      [
        "g",
        "one"
      ],
      [
        "th",
        "ree"
      ],
      [
        "le",
        "ast"
      ],
      [
        "le",
        "ave"
      ],
      [
        "si",
        "l"
      ],
      [
        "tem",
        "pt"
      ],
      [
        "c",
        "ir"
      ],
      [
        "c",
        "hap"
      ],
      [
        "e",
        "ither"
      ],
      [
        "re",
        "sol"
      ],
      [
        "be",
        "ha"
      ],
      [
        "be",
        "cause"
      ],
      [
        "be",
        "twe"
      ],
      [
        "acquain",
        "tance"
      ],
      [
        "betwe",
        "en"
      ],
      [
        "a",
        "ir"
      ],
      [
        "h",
        "on"
      ],
      [
        "de",
        "si"
      ],
      [
        "c",
        "u"
      ],
      [
        "d",
        "en"
      ],
      [
        "h",
        "ard"
      ],
      [
        "o",
        "l"
      ],
      [
        "p",
        "ur"
      ],
      [
        "al",
        "most"
      ],
      [
        "qu",
        "i"
      ],
      [
        "di",
        "re"
      ],
      [
        "pass",
        "ed"
      ],
      [
        "ni",
        "ght"
      ],
      [
        "immedi",
        "ately"
      ],
      [
        "convers",
        "ation"
      ],
      [
        "chap",
        "ter"
      ],
      [
        "c",
        "ous"
      ],
      [
        "in",
        "v"
      ],
      [
        "me",
        "ans"
      ],
      [
        "ac",
        "k"
      ],
      [
        "ance",
        "s"
      ],
      [
        "mar",
        "ried"
      ],
      [
        "ifferen",
        "t"
      ],
      [
        "occas",
        "ion"
      ],
      [
        "e",
        "le"
      ],
      [
        "k",
        "new"
      ],
      [
        "th",
        "ose"
      ],
      [
        "me",
        "an"
      ],
      [
        "com",
        "fort"
      ],
      [
        "who",
        "se"
      ],
      [
        "see",
        "ing"
      ],
      [
        "ction",
        "s"
      ],
      [
        "coll",
        "ect"
      ],
      [
        "gi",
        "ven"
      ],
      [
        "beg",
        "an"
      ],
      [
        "agree",
        "able"
      ],
      [
        "i",
        "ed"
      ],
      [
        "l",
        "ond"
      ],
      [
        "on",
        "ce"
      ],
      [
        "li",
        "fe"
      ],
      [
        "me",
        "et"
      ],
      [
        "con",
        "ne"
      ],
      [
        "pr",
        "om"
      ],
      [
        "part",
        "y"
      ],
      [
        "vis",
        "it"
      ],
      [
        "lond",
        "on"
      ],
      [
        "b",
        "l"
      ],
      [
        "c",
        "re"
      ],
      [
        "m",
        "in"
      ],
      [
        "w",
        "on"
      ],
      [
        "y",
        "ton"
      ],
      [
        "an",
        "other"
      ],
      [
        "ow",
        "er"
      ],
      [
        "ain",
        "ed"
      ],
      [
        "go",
        "ing"
      ],
      [
        "il",
        "ity"
      ],
      [
        "pri",
        "de"
      ],
      [
        "mer",
        "yton"
      ],
      [
        "concer",
        "n"
      ],
      [
        "he",
        "s"
      ],
      [
        "re",
        "p"
      ],
      [
        "re",
        "gard"
      ],
      [
        "ce",
        "pt"
      ],
      [
        "sh",
        "ort"
      ],
      [
        "time",
        "s"
      ],
      [
        "gener",
        "al"
      ],
      [
        "b",
        "and"
      ],
      [
        "c",
        "or"
      ],
      [
        "g",
        "ave"
      ],
      [
        "in",
        "te"
      ],
      [
        "to",
        "ok"
      ],
      [
        "ing",
        "ly"
      ],
      [
        "ag",
        "ed"
      ],
      [
        "know",
        "led"
      ],
      [
        "other",
        "s"
      ],
      [
        "vi",
        "our"
      ],
      [
        "friend",
        "s"
      ],
      [
        "under",
        "stand"
      ],
      [
        "tak",
        "en"
      ],
      [
        "ra",
        "ther"
      ],
      [
        "beha",
        "viour"
      ],
      [
        "h",
        "us"
      ],
      [
        "p",
        "at"
      ],
      [
        "t",
        "s"
      ],
      [
        "u",
        "d"
      ],
      [
        "re",
        "me"
      ],
      [
        "of",
        "fi"
      ],
      [
        "it",
        "ation"
      ],
      [
        "ut",
        "e"
      ],
      [
        "wh",
        "y"
      ],
      [
        "qu",
        "est"
      ],
      [
        "whe",
        "ther"
      ],
      [
        "tr",
        "a"
      ],
      [
        "hus",
        "band"
      ],
      [
        "k",
        "s"
      ],
      [
        "o",
        "ple"
      ],
      [
        "p",
        "ain"
      ],
      [
        "p",
        "ower"
      ],
      [
        "re",
        "m"
      ],
      [
        "ad",
        "vant"
      ],
      [
        "ro",
        "w"
      ],
      [
        "pe",
        "mber"
      ],
      [
        "pe",
        "ople"
      ],
      [
        "us",
        "ed"
      ],
      [
        "again",
        "st"
      ],
      [
        "fort",
        "une"
      ],
      [
        "hon",
        "our"
      ],
      [
        "pember",
        "ley"
      ],
      [
        "d",
        "r"
      ],
      [
        "e",
        "qu"
      ],
      [
        "l",
        "at"
      ],
      [
        "p",
        "s"
      ],
      [
        "an",
        "ge"
      ],
      [
        "ar",
        "m"
      ],
      [
        "li",
        "ve"
      ],
      [
        "de",
        "term"
      ],
      [
        "ne",
        "cess"
      ],
      [
        "ro",
        "s"
      ],
      [
        "per",
        "su"
      ],
      [
        "continu",
        "ed"
      ],
      [
        "inte",
        "rest"
      ],
      [
        "b",
        "re"
      ],
      [
        "c",
        "um"
      ],
      [
        "e",
        "yes"
      ],
      [
        "i",
        "gh"
      ],
      [
        "v",
        "id"
      ],
      [
        "at",
        "ing"
      ],
      [
        "le",
        "s"
      ],
      [
        "ne",
        "igh"
      ],
      [
        "we",
        "e"
      ],
      [
        "ac",
        "cept"
      ],
      [
        "ob",
        "li"
      ],
      [
        "sp",
        "ir"
      ],
      [
        "sen",
        "se"
      ],
      [
        "ang",
        "er"
      ],
      [
        "sett",
        "led"
      ],
      [
        "neigh",
        "bour"
      ],
      [
        "f",
        "er"
      ],
      [
        "r",
        "ough"
      ],
      [
        "he",
        "n"
      ],
      [
        "ar",
        "ri"
      ],
      [
        "st",
        "ay"
      ],
      [
        "se",
        "qu"
      ],
      [
        "your",
        "self"
      ],
      [
        "fa",
        "ir"
      ],
      [
        "fi",
        "ed"
      ],
      [
        "sc",
        "ar"
      ],
      [
        "bo",
        "ok"
      ],
      [
        "daughter",
        "s"
      ],
      [
        "cir",
        "cum"
      ],
      [
        "i",
        "dea"
      ],
      [
        "l",
        "is"
      ],
      [
        "th",
        "rough"
      ],
      [
        "ne",
        "ar"
      ],
      [
        "su",
        "f"
      ],
      [
        "read",
        "y"
      ],
      [
        "form",
        "er"
      ],
      [
        "perfect",
        "ly"
      ],
      [
        "cous",
        "in"
      ],
      [
        ";",
        "--"
      ],
      [
        "c",
        "are"
      ],
      [
        "c",
        "ur"
      ],
      [
        "st",
        "er"
      ],
      [
        "ac",
        "coun"
      ],
      [
        "sup",
        "pose"
      ],
      [
        "gentle",
        "man"
      ],
      [
        "ros",
        "ings"
      ],
      [
        "b",
        "us"
      ],
      [
        "b",
        "ack"
      ],
      [
        "in",
        "form"
      ],
      [
        "an",
        "x"
      ],
      [
        "be",
        "a"
      ],
      [
        "wi",
        "fe"
      ],
      [
        "ad",
        "m"
      ],
      [
        "com",
        "pli"
      ],
      [
        "pl",
        "ay"
      ],
      [
        "el",
        "se"
      ],
      [
        "circum",
        "st"
      ],
      [
        "c",
        "he"
      ],
      [
        "h",
        "um"
      ],
      [
        "l",
        "ves"
      ],
      [
        "re",
        "pe"
      ],
      [
        "to",
        "r"
      ],
      [
        "ce",
        "ly"
      ],
      [
        "hi",
        "gh"
      ],
      [
        "ri",
        "but"
      ],
      [
        "con",
        "sequ"
      ],
      [
        "pre",
        "hen"
      ],
      [
        "im",
        "ag"
      ],
      [
        "ant",
        "ly"
      ],
      [
        "ast",
        "on"
      ],
      [
        "hear",
        "t"
      ],
      [
        "hard",
        "ly"
      ],
      [
        "lis",
        "ten"
      ],
      [
        "bus",
        "iness"
      ],
      [
        "bea",
        "ut"
      ],
      [
        "c",
        "lo"
      ],
      [
        "p",
        "end"
      ],
      [
        "de",
        "sc"
      ],
      [
        "so",
        "ci"
      ],
      [
        "co",
        "p"
      ],
      [
        "manner",
        "s"
      ],
      [
        "return",
        "ed"
      ],
      [
        "girl",
        "s"
      ],
      [
        "civil",
        "ity"
      ],
      [
        "scar",
        "cely"
      ],
      [
        "b",
        "all"
      ],
      [
        "d",
        "ifferent"
      ],
      [
        "f",
        "it"
      ],
      [
        "l",
        "p"
      ],
      [
        "p",
        "i"
      ],
      [
        "r",
        "u"
      ],
      [
        "t",
        "able"
      ],
      [
        "he",
        "lp"
      ],
      [
        "re",
        "collect"
      ],
      [
        "se",
        "lves"
      ],
      [
        "con",
        "v"
      ],
      [
        "do",
        "or"
      ],
      [
        "im",
        "possible"
      ],
      [
        "long",
        "er"
      ],
      [
        "str",
        "u"
      ],
      [
        "walk",
        "ed"
      ],
      [
        "ish",
        "ment"
      ],
      [
        "doub",
        "t"
      ],
      [
        "won",
        "der"
      ],
      [
        "e",
        "ce"
      ],
      [
        "p",
        "ed"
      ],
      [
        "p",
        "hi"
      ],
      [
        "p",
        "ut"
      ],
      [
        "u",
        "su"
      ],
      [
        "en",
        "dea"
      ],
      [
        "ar",
        "r"
      ],
      [
        "li",
        "ps"
      ],
      [
        "de",
        "st"
      ],
      [
        "ct",
        "ed"
      ],
      [
        "dis",
        "ap"
      ],
      [
        "ho",
        "od"
      ],
      [
        "wis",
        "e"
      ],
      [
        "pleas",
        "ed"
      ],
      [
        "turn",
        "ed"
      ],
      [
        "like",
        "ly"
      ],
      [
        "coun",
        "try"
      ],
      [
        "expect",
        "ed"
      ],
      [
        "term",
        "s"
      ],
      [
        "car",
        "riage"
      ],
      [
        "call",
        "ed"
      ],
      [
        "hand",
        "some"
      ],
      [
        "spo",
        "ke"
      ],
      [
        "advant",
        "age"
      ],
      [
        "d",
        "ing"
      ],
      [
        "i",
        "able"
      ],
      [
        "l",
        "it"
      ],
      [
        "s",
        "itu"
      ],
      [
        "be",
        "st"
      ],
      [
        "su",
        "c"
      ],
      [
        "su",
        "m"
      ],
      [
        "con",
        "f"
      ],
      [
        "fe",
        "ar"
      ],
      [
        "com",
        "pl"
      ],
      [
        "per",
        "i"
      ],
      [
        "go",
        "t"
      ],
      [
        "im",
        "port"
      ],
      [
        "si",
        "ble"
      ],
      [
        "lady",
        "ship"
      ],
      [
        "jo",
        "y"
      ],
      [
        "e",
        "ad"
      ],
      [
        "f",
        "ast"
      ],
      [
        "s",
        "ho"
      ],
      [
        "t",
        "ing"
      ],
      [
        "t",
        "ford"
      ],
      [
        "he",
        "ad"
      ],
      [
        "ou",
        "d"
      ],
      [
        "as",
        "ked"
      ],
      [
        "her",
        "tford"
      ],
      [
        "ch",
        "o"
      ],
      [
        "me",
        "t"
      ],
      [
        "po",
        "or"
      ],
      [
        "ac",
        "hed"
      ],
      [
        "pre",
        "vent"
      ],
      [
        "see",
        "m"
      ],
      [
        "wis",
        "hed"
      ],
      [
        "op",
        "en"
      ],
      [
        "eng",
        "aged"
      ],
      [
        "itu",
        "de"
      ],
      [
        "hertford",
        "shire"
      ],
      [
        "d",
        "are"
      ],
      [
        "n",
        "ame"
      ],
      [
        "w",
        "a"
      ],
      [
        "w",
        "ed"
      ],
      [
        "in",
        "ced"
      ],
      [
        "be",
        "y"
      ],
      [
        "it",
        "ing"
      ],
      [
        "for",
        "ster"
      ],
      [
        "ke",
        "ep"
      ],
      [
        "pro",
        "per"
      ],
      [
        "mar",
        "y"
      ],
      [
        "add",
        "ress"
      ],
      [
        "chi",
        "ld"
      ],
      [
        "dr",
        "aw"
      ],
      [
        "conv",
        "inced"
      ],
      [
        "e",
        "red"
      ],
      [
        "i",
        "gn"
      ],
      [
        "s",
        "or"
      ],
      [
        "as",
        "sure"
      ],
      [
        "se",
        "t"
      ],
      [
        "ent",
        "er"
      ],
      [
        "with",
        "in"
      ],
      [
        "con",
        "d"
      ],
      [
        "con",
        "ce"
      ],
      [
        "vi",
        "e"
      ],
      [
        "bour",
        "gh"
      ],
      [
        "feel",
        "ing"
      ],
      [
        "vo",
        "l"
      ],
      [
        "talk",
        "ing"
      ],
      [
        "wr",
        "ite"
      ],
      [
        "offi",
        "cer"
      ],
      [
        "spir",
        "its"
      ],
      [
        "f",
        "our"
      ],
      [
        "de",
        "cl"
      ],
      [
        "ne",
        "ither"
      ],
      [
        "qu",
        "ir"
      ],
      [
        "ca",
        "p"
      ],
      [
        "feren",
        "ce"
      ],
      [
        "talk",
        "ed"
      ],
      [
        "gentle",
        "men"
      ],
      [
        "satis",
        "fied"
      ],
      [
        "mon",
        "th"
      ],
      [
        "min",
        "ut"
      ],
      [
        "accoun",
        "t"
      ],
      [
        "situ",
        "ation"
      ],
      [
        "vie",
        "w"
      ],
      [
        "a",
        "fr"
      ],
      [
        "a",
        "im"
      ],
      [
        "f",
        "in"
      ],
      [
        "f",
        "requ"
      ],
      [
        "g",
        "lad"
      ],
      [
        "i",
        "g"
      ],
      [
        "s",
        "m"
      ],
      [
        "s",
        "ort"
      ],
      [
        "t",
        "ion"
      ],
      [
        "z",
        "william"
      ],
      [
        "be",
        "ar"
      ],
      [
        "ce",
        "ed"
      ],
      [
        "al",
        "so"
      ],
      [
        "ag",
        "er"
      ],
      [
        "am",
        "ong"
      ],
      [
        "were",
        "d"
      ],
      [
        "ser",
        "ious"
      ],
      [
        "belie",
        "ved"
      ],
      [
        "str",
        "ong"
      ],
      [
        "eng",
        "age"
      ],
      [
        "br",
        "ought"
      ],
      [
        "off",
        "er"
      ],
      [
        "mat",
        "ter"
      ],
      [
        "din",
        "ner"
      ],
      [
        "nat",
        "ur"
      ],
      [
        "fu",
        "lly"
      ],
      [
        "surpr",
        "ise"
      ],
      [
        "year",
        "s"
      ],
      [
        "lat",
        "ter"
      ],
      [
        "fit",
        "zwilliam"
      ],
      [
        "minut",
        "es"
      ],
      [
        "afr",
        "aid"
      ],
      [
        "c",
        "red"
      ],
      [
        "r",
        "on"
      ],
      [
        "r",
        "ap"
      ],
      [
        "t",
        "ri"
      ],
      [
        "in",
        "cl"
      ],
      [
        "se",
        "s"
      ],
      [
        "ent",
        "ered"
      ],
      [
        "de",
        "pend"
      ],
      [
        "am",
        "iable"
      ],
      [
        "ex",
        "c"
      ],
      [
        "some",
        "times"
      ],
      [
        "ma",
        "king"
      ],
      [
        "ju",
        "d"
      ],
      [
        "cl",
        "aim"
      ],
      [
        "inform",
        "ation"
      ],
      [
        "bey",
        "ond"
      ],
      [
        "sm",
        "all"
      ],
      [
        "e",
        "ager"
      ],
      [
        "l",
        "ow"
      ],
      [
        "r",
        "up"
      ],
      [
        "in",
        "ation"
      ],
      [
        "ou",
        "red"
      ],
      [
        "for",
        "med"
      ],
      [
        "ad",
        "mi"
      ],
      [
        "ro",
        "du"
      ],
      [
        "ac",
        "knowled"
      ],
      [
        "end",
        "ing"
      ],
      [
        "mar",
        "k"
      ],
      [
        "day",
        "s"
      ],
      [
        "int",
        "rodu"
      ],
      [
        "say",
        "ing"
      ],
      [
        "dist",
        "ress"
      ],
      [
        "surpr",
        "ised"
      ],
      [
        "hur",
        "st"
      ],
      [
        "necess",
        "ary"
      ],
      [
        "usu",
        "al"
      ],
      [
        "disap",
        "point"
      ],
      [
        "sor",
        "ry"
      ],
      [
        ",",
        "--"
      ],
      [
        "a",
        "i"
      ],
      [
        "c",
        "hed"
      ],
      [
        "d",
        "an"
      ],
      [
        "d",
        "ance"
      ],
      [
        "f",
        "ine"
      ],
      [
        "l",
        "er"
      ],
      [
        "l",
        "aw"
      ],
      [
        "s",
        "and"
      ],
      [
        "x",
        "ed"
      ],
      [
        "en",
        "ess"
      ],
      [
        "de",
        "al"
      ],
      [
        "af",
        "fect"
      ],
      [
        "thou",
        "sand"
      ],
      [
        "ap",
        "pro"
      ],
      [
        "wis",
        "hes"
      ],
      [
        "cas",
        "e"
      ],
      [
        "pos",
        "ition"
      ],
      [
        "ans",
        "wered"
      ],
      [
        "far",
        "ther"
      ],
      [
        "particular",
        "ly"
      ],
      [
        "sil",
        "ence"
      ],
      [
        "dire",
        "ct"
      ],
      [
        "inv",
        "itation"
      ],
      [
        "cred",
        "it"
      ],
      [
        "a",
        "z"
      ],
      [
        "m",
        "as"
      ],
      [
        "s",
        "ence"
      ],
      [
        "y",
        "ing"
      ],
      [
        "re",
        "w"
      ],
      [
        "ar",
        "n"
      ],
      [
        "it",
        "ies"
      ],
      [
        "ent",
        "i"
      ],
      [
        "ut",
        "ion"
      ],
      [
        "me",
        "rely"
      ],
      [
        "ex",
        "t"
      ],
      [
        "ex",
        "act"
      ],
      [
        "them",
        "selves"
      ],
      [
        "us",
        "ion"
      ],
      [
        "fi",
        "ve"
      ],
      [
        "ure",
        "s"
      ],
      [
        "ound",
        "s"
      ],
      [
        "look",
        "ing"
      ],
      [
        "new",
        "s"
      ],
      [
        "speak",
        "ing"
      ],
      [
        "appear",
        "ance"
      ],
      [
        "fu",
        "ll"
      ],
      [
        "desi",
        "gn"
      ],
      [
        "pat",
        "i"
      ],
      [
        "determ",
        "ined"
      ],
      [
        "consequ",
        "ence"
      ],
      [
        "phi",
        "lips"
      ],
      [
        "endea",
        "vour"
      ],
      [
        "c",
        "ing"
      ],
      [
        "f",
        "an"
      ],
      [
        "h",
        "un"
      ],
      [
        "l",
        "eng"
      ],
      [
        "re",
        "al"
      ],
      [
        "re",
        "mo"
      ],
      [
        "as",
        "k"
      ],
      [
        "as",
        "su"
      ],
      [
        "st",
        "ed"
      ],
      [
        "se",
        "cond"
      ],
      [
        "for",
        "ward"
      ],
      [
        "de",
        "ser"
      ],
      [
        "al",
        "ity"
      ],
      [
        "ac",
        "y"
      ],
      [
        "ur",
        "ing"
      ],
      [
        "what",
        "ever"
      ],
      [
        "thing",
        "s"
      ],
      [
        "vi",
        "ce"
      ],
      [
        "pl",
        "an"
      ],
      [
        "after",
        "wards"
      ],
      [
        "char",
        "m"
      ],
      [
        "op",
        "port"
      ],
      [
        "appe",
        "ared"
      ],
      [
        "sen",
        "sible"
      ],
      [
        "ni",
        "ece"
      ],
      [
        "work",
        "s"
      ],
      [
        "exce",
        "ed"
      ],
      [
        "soci",
        "ety"
      ],
      [
        "leng",
        "th"
      ],
      [
        "opport",
        "un"
      ],
      [
        "c",
        "ation"
      ],
      [
        "d",
        "if"
      ],
      [
        "l",
        "ar"
      ],
      [
        "l",
        "augh"
      ],
      [
        "t",
        "u"
      ],
      [
        "at",
        "tempt"
      ],
      [
        "st",
        "re"
      ],
      [
        "li",
        "ked"
      ],
      [
        "al",
        "one"
      ],
      [
        "ac",
        "c"
      ],
      [
        "miss",
        "ion"
      ],
      [
        "ci",
        "p"
      ],
      [
        "ser",
        "vant"
      ],
      [
        "pleas",
        "ant"
      ],
      [
        "att",
        "ach"
      ],
      [
        "rece",
        "ive"
      ],
      [
        "sto",
        "od"
      ],
      [
        "inst",
        "antly"
      ],
      [
        "chi",
        "ef"
      ],
      [
        "resol",
        "ved"
      ],
      [
        "equ",
        "al"
      ],
      [
        "bre",
        "ak"
      ],
      [
        "officer",
        "s"
      ],
      [
        "mas",
        "ter"
      ],
      [
        "?",
        "--"
      ],
      [
        "h",
        "or"
      ],
      [
        "i",
        "i"
      ],
      [
        "m",
        "one"
      ],
      [
        "p",
        "u"
      ],
      [
        "s",
        "light"
      ],
      [
        "in",
        "tell"
      ],
      [
        "re",
        "at"
      ],
      [
        "th",
        "us"
      ],
      [
        "se",
        "ver"
      ],
      [
        "de",
        "red"
      ],
      [
        "ne",
        "y"
      ],
      [
        "te",
        "red"
      ],
      [
        "fa",
        "ce"
      ],
      [
        "itt",
        "ed"
      ],
      [
        "itt",
        "ing"
      ],
      [
        "pr",
        "of"
      ],
      [
        "pr",
        "ud"
      ],
      [
        "than",
        "k"
      ],
      [
        "ten",
        "ance"
      ],
      [
        "coun",
        "tenance"
      ],
      [
        "br",
        "ing"
      ],
      [
        "cour",
        "age"
      ],
      [
        "vis",
        "i"
      ],
      [
        "dist",
        "ribut"
      ],
      [
        "kind",
        "ness"
      ],
      [
        "exce",
        "pt"
      ],
      [
        "comp",
        "an"
      ],
      [
        "word",
        "s"
      ],
      [
        "ele",
        "ct"
      ],
      [
        "neighbour",
        "hood"
      ],
      [
        "arri",
        "val"
      ],
      [
        "adm",
        "ir"
      ],
      [
        "compli",
        "ment"
      ],
      [
        "repe",
        "ated"
      ],
      [
        "aston",
        "ishment"
      ],
      [
        "exact",
        "ly"
      ],
      [
        "opportun",
        "ity"
      ],
      [
        "mone",
        "y"
      ],
      [
        "b",
        "right"
      ],
      [
        "c",
        "al"
      ],
      [
        "p",
        "h"
      ],
      [
        "in",
        "ti"
      ],
      [
        "re",
        "sent"
      ],
      [
        "re",
        "comm"
      ],
      [
        "en",
        "quir"
      ],
      [
        "to",
        "ler"
      ],
      [
        "ar",
        "ch"
      ],
      [
        "st",
        "ate"
      ],
      [
        "al",
        "ready"
      ],
      [
        "ab",
        "o"
      ],
      [
        "ag",
        "es"
      ],
      [
        "lo",
        "st"
      ],
      [
        "fi",
        "ci"
      ],
      [
        "wor",
        "th"
      ],
      [
        "pl",
        "ain"
      ],
      [
        "gr",
        "ace"
      ],
      [
        "lu",
        "ck"
      ],
      [
        "young",
        "er"
      ],
      [
        "jo",
        "ined"
      ],
      [
        "found",
        "ation"
      ],
      [
        "val",
        "u"
      ],
      [
        "inc",
        "reas"
      ],
      [
        "smi",
        "le"
      ],
      [
        "cu",
        "ri"
      ],
      [
        "rep",
        "ly"
      ],
      [
        "wee",
        "k"
      ],
      [
        "obli",
        "ged"
      ],
      [
        "ron",
        "ic"
      ],
      [
        "elect",
        "ronic"
      ],
      [
        "d",
        "on"
      ],
      [
        "i",
        "ght"
      ],
      [
        "i",
        "ety"
      ],
      [
        "u",
        "red"
      ],
      [
        "v",
        "an"
      ],
      [
        "at",
        "es"
      ],
      [
        "is",
        "ing"
      ],
      [
        "as",
        "sis"
      ],
      [
        "le",
        "arn"
      ],
      [
        "ne",
        "ed"
      ],
      [
        "ne",
        "st"
      ],
      [
        "me",
        "ant"
      ],
      [
        "so",
        "le"
      ],
      [
        "si",
        "gn"
      ],
      [
        "gi",
        "ving"
      ],
      [
        "ear",
        "ly"
      ],
      [
        "ear",
        "nest"
      ],
      [
        "attent",
        "ions"
      ],
      [
        "ifferen",
        "ce"
      ],
      [
        "satis",
        "fa"
      ],
      [
        "ref",
        "le"
      ],
      [
        "eas",
        "ily"
      ],
      [
        "mention",
        "ed"
      ],
      [
        "ute",
        "ly"
      ],
      [
        "anx",
        "ious"
      ],
      [
        "circumst",
        "ances"
      ],
      [
        "high",
        "ly"
      ],
      [
        "assu",
        "red"
      ],
      [
        "inti",
        "m"
      ],
      [
        "b",
        "ility"
      ],
      [
        "d",
        "uring"
      ],
      [
        "e",
        "vent"
      ],
      [
        "k",
        "en"
      ],
      [
        "s",
        "ing"
      ],
      [
        "u",
        "al"
      ],
      [
        "w",
        "at"
      ],
      [
        "as",
        "sur"
      ],
      [
        "st",
        "air"
      ],
      [
        "li",
        "br"
      ],
      [
        "ad",
        "ed"
      ],
      [
        "ro",
        "ss"
      ],
      [
        "con",
        "du"
      ],
      [
        "ab",
        "ility"
      ],
      [
        "ab",
        "sence"
      ],
      [
        "if",
        "ied"
      ],
      [
        "im",
        "pro"
      ],
      [
        "know",
        "ing"
      ],
      [
        "pr",
        "a"
      ],
      [
        "pr",
        "in"
      ],
      [
        "vo",
        "id"
      ],
      [
        "tru",
        "th"
      ],
      [
        "inter",
        "rup"
      ],
      [
        "comp",
        "any"
      ],
      [
        "allow",
        "ed"
      ],
      [
        "obser",
        "ved"
      ],
      [
        "hour",
        "s"
      ],
      [
        "quest",
        "ion"
      ],
      [
        "imag",
        "ine"
      ],
      [
        "beaut",
        "y"
      ],
      [
        "suc",
        "cess"
      ],
      [
        "import",
        "ance"
      ],
      [
        "affect",
        "ed"
      ],
      [
        "exceed",
        "ingly"
      ],
      [
        "attach",
        "ment"
      ],
      [
        "break",
        "fast"
      ],
      [
        "satisfa",
        "ction"
      ],
      [
        "libr",
        "ary"
      ],
      [
        "d",
        "ed"
      ],
      [
        "i",
        "a"
      ],
      [
        "i",
        "ving"
      ],
      [
        "l",
        "ing"
      ],
      [
        "o",
        "s"
      ],
      [
        "p",
        "a"
      ],
      [
        "s",
        "end"
      ],
      [
        "u",
        "ally"
      ],
      [
        "v",
        "ar"
      ],
      [
        "w",
        "w"
      ],
      [
        "en",
        "joy"
      ],
      [
        "se",
        "m"
      ],
      [
        "ce",
        "ived"
      ],
      [
        "de",
        "c"
      ],
      [
        "we",
        "l"
      ],
      [
        "ag",
        "o"
      ],
      [
        "com",
        "ple"
      ],
      [
        "com",
        "prehen"
      ],
      [
        "do",
        "ing"
      ],
      [
        "co",
        "ld"
      ],
      [
        "who",
        "lly"
      ],
      [
        "pr",
        "ay"
      ],
      [
        "ive",
        "ly"
      ],
      [
        "fort",
        "un"
      ],
      [
        "sc",
        "he"
      ],
      [
        "thought",
        "s"
      ],
      [
        "sup",
        "posed"
      ],
      [
        "walk",
        "ing"
      ],
      [
        "beg",
        "in"
      ],
      [
        "tt",
        "y"
      ],
      [
        "tem",
        "per"
      ],
      [
        "express",
        "ed"
      ],
      [
        "tru",
        "e"
      ],
      [
        "follow",
        "ing"
      ],
      [
        "sil",
        "ent"
      ],
      [
        "pur",
        "pose"
      ],
      [
        "rem",
        "ain"
      ],
      [
        "cop",
        "y"
      ],
      [
        "cap",
        "able"
      ],
      [
        "a",
        "de"
      ],
      [
        "b",
        "ly"
      ],
      [
        "d",
        "read"
      ],
      [
        "d",
        "den"
      ],
      [
        "g",
        "ri"
      ],
      [
        "p",
        "lo"
      ],
      [
        "p",
        "aid"
      ],
      [
        "r",
        "an"
      ],
      [
        "s",
        "ford"
      ],
      [
        "w",
        "ind"
      ],
      [
        "re",
        "gre"
      ],
      [
        "re",
        "gi"
      ],
      [
        "th",
        "or"
      ],
      [
        "en",
        "se"
      ],
      [
        "ch",
        "ange"
      ],
      [
        "li",
        "ving"
      ],
      [
        "su",
        "dden"
      ],
      [
        "con",
        "tr"
      ],
      [
        "--",
        "--"
      ],
      [
        "qu",
        "ar"
      ],
      [
        "ex",
        "tra"
      ],
      [
        "pre",
        "tty"
      ],
      [
        "dis",
        "co"
      ],
      [
        "dis",
        "position"
      ],
      [
        "mis",
        "er"
      ],
      [
        "af",
        "fair"
      ],
      [
        "att",
        "ended"
      ],
      [
        "tain",
        "ed"
      ],
      [
        "sp",
        "ite"
      ],
      [
        "great",
        "er"
      ],
      [
        "jo",
        "in"
      ],
      [
        "oc",
        "cur"
      ],
      [
        "gu",
        "ard"
      ],
      [
        "ef",
        "fect"
      ],
      [
        "acquain",
        "ted"
      ],
      [
        "eas",
        "y"
      ],
      [
        "grat",
        "ul"
      ],
      [
        "follow",
        "ed"
      ],
      [
        "persu",
        "aded"
      ],
      [
        "hum",
        "our"
      ],
      [
        "child",
        "ren"
      ],
      [
        "enti",
        "rely"
      ],
      [
        "fan",
        "cy"
      ],
      [
        "hun",
        "sford"
      ],
      [
        "visi",
        "tor"
      ],
      [
        "admir",
        "ation"
      ],
      [
        "stair",
        "s"
      ],
      [
        "condu",
        "ct"
      ],
      [
        "sche",
        "me"
      ],
      [
        "regi",
        "ment"
      ],
      [
        "a",
        "void"
      ],
      [
        "b",
        "it"
      ],
      [
        "b",
        "lic"
      ],
      [
        "c",
        "ha"
      ],
      [
        "d",
        "rew"
      ],
      [
        "g",
        "y"
      ],
      [
        "p",
        "he"
      ],
      [
        "p",
        "ounds"
      ],
      [
        "s",
        "ion"
      ],
      [
        "re",
        "t"
      ],
      [
        "li",
        "ber"
      ],
      [
        "de",
        "gre"
      ],
      [
        "not",
        "ice"
      ],
      [
        "ne",
        "phe"
      ],
      [
        "su",
        "sp"
      ],
      [
        "al",
        "th"
      ],
      [
        "un",
        "less"
      ],
      [
        "mo",
        "ti"
      ],
      [
        "by",
        "shire"
      ],
      [
        "par",
        "k"
      ],
      [
        "us",
        "ing"
      ],
      [
        "ous",
        "ly"
      ],
      [
        "happ",
        "ened"
      ],
      [
        "der",
        "byshire"
      ],
      [
        "hear",
        "ing"
      ],
      [
        "comm",
        "on"
      ],
      [
        "rel",
        "ations"
      ],
      [
        "mat",
        "ch"
      ],
      [
        "nat",
        "ure"
      ],
      [
        "grat",
        "itude"
      ],
      [
        "prob",
        "ably"
      ],
      [
        "em",
        "plo"
      ],
      [
        "reme",
        "mber"
      ],
      [
        "ign",
        "or"
      ],
      [
        "conce",
        "al"
      ],
      [
        "frequ",
        "ently"
      ],
      [
        "natur",
        "al"
      ],
      [
        "direct",
        "ly"
      ],
      [
        "lar",
        "ge"
      ],
      [
        "pu",
        "blic"
      ],
      [
        "sever",
        "al"
      ],
      [
        "bright",
        "on"
      ],
      [
        "curi",
        "os"
      ],
      [
        "nephe",
        "w"
      ],
      [
        "a",
        "po"
      ],
      [
        "b",
        "u"
      ],
      [
        "e",
        "vid"
      ],
      [
        "p",
        "are"
      ],
      [
        "r",
        "un"
      ],
      [
        "re",
        "s"
      ],
      [
        "re",
        "lie"
      ],
      [
        "st",
        "ep"
      ],
      [
        "se",
        "ss"
      ],
      [
        "con",
        "fe"
      ],
      [
        "con",
        "side"
      ],
      [
        "con",
        "gratul"
      ],
      [
        "pe",
        "ci"
      ],
      [
        "es",
        "peci"
      ],
      [
        "sa",
        "ke"
      ],
      [
        "whe",
        "never"
      ],
      [
        "dis",
        "like"
      ],
      [
        "im",
        "pati"
      ],
      [
        "ge",
        "or"
      ],
      [
        "pr",
        "oud"
      ],
      [
        "vi",
        "ol"
      ],
      [
        "tr",
        "ou"
      ],
      [
        "pleas",
        "ing"
      ],
      [
        "pos",
        "sess"
      ],
      [
        "fort",
        "night"
      ],
      [
        "ach",
        "ing"
      ],
      [
        "hope",
        "s"
      ],
      [
        "rel",
        "ation"
      ],
      [
        "exce",
        "ll"
      ],
      [
        "want",
        "ed"
      ],
      [
        "delight",
        "ed"
      ],
      [
        "marry",
        "ing"
      ],
      [
        "ele",
        "g"
      ],
      [
        "rem",
        "ained"
      ],
      [
        "prevent",
        "ed"
      ],
      [
        "incl",
        "ination"
      ],
      [
        "degre",
        "e"
      ],
      [
        "emplo",
        "y"
      ],
      [
        "curios",
        "ity"
      ],
      [
        "confe",
        "ss"
      ],
      [
        "conside",
        "red"
      ],
      [
        "especi",
        "ally"
      ],
      [
        "a",
        "v"
      ],
      [
        "e",
        "y"
      ],
      [
        "e",
        "vil"
      ],
      [
        "j",
        "our"
      ],
      [
        "k",
        "es"
      ],
      [
        "p",
        "ay"
      ],
      [
        "w",
        "arm"
      ],
      [
        "in",
        "f"
      ],
      [
        "re",
        "co"
      ],
      [
        "er",
        "s"
      ],
      [
        "en",
        "e"
      ],
      [
        "ne",
        "g"
      ],
      [
        "id",
        "ed"
      ],
      [
        "ab",
        "sol"
      ],
      [
        "com",
        "par"
      ],
      [
        "are",
        "st"
      ],
      [
        "ex",
        "er"
      ],
      [
        "will",
        "ing"
      ],
      [
        "pro",
        "ceed"
      ],
      [
        "mis",
        "taken"
      ],
      [
        "ate",
        "st"
      ],
      [
        "fi",
        "xed"
      ],
      [
        "itt",
        "en"
      ],
      [
        "el",
        "dest"
      ],
      [
        "think",
        "ing"
      ],
      [
        "int",
        "ent"
      ],
      [
        "int",
        "ended"
      ],
      [
        "sp",
        "ent"
      ],
      [
        "pos",
        "ing"
      ],
      [
        "vo",
        "ice"
      ],
      [
        "agree",
        "ment"
      ],
      [
        "express",
        "ion"
      ],
      [
        "wr",
        "itten"
      ],
      [
        "reason",
        "able"
      ],
      [
        "favour",
        "ite"
      ],
      [
        "desi",
        "re"
      ],
      [
        "meet",
        "ing"
      ],
      [
        "prom",
        "ised"
      ],
      [
        "desc",
        "ri"
      ],
      [
        "seem",
        "s"
      ],
      [
        "draw",
        "ing"
      ],
      [
        "ai",
        "led"
      ],
      [
        "pra",
        "ise"
      ],
      [
        "gri",
        "e"
      ],
      [
        "wind",
        "ow"
      ],
      [
        "trou",
        "ble"
      ],
      [
        "jour",
        "ney"
      ],
      [
        "b",
        "or"
      ],
      [
        "c",
        "lu"
      ],
      [
        "d",
        "ro"
      ],
      [
        "d",
        "ress"
      ],
      [
        "f",
        "al"
      ],
      [
        "i",
        "de"
      ],
      [
        "l",
        "ay"
      ],
      [
        "r",
        "id"
      ],
      [
        "s",
        "ed"
      ],
      [
        "s",
        "itting"
      ],
      [
        "w",
        "ro"
      ],
      [
        "he",
        "alth"
      ],
      [
        "re",
        "ser"
      ],
      [
        "re",
        "port"
      ],
      [
        "as",
        "e"
      ],
      [
        "ent",
        "s"
      ],
      [
        "for",
        "ced"
      ],
      [
        "su",
        "it"
      ],
      [
        "al",
        "s"
      ],
      [
        "id",
        "ence"
      ],
      [
        "gre",
        "atest"
      ],
      [
        "pt",
        "ion"
      ],
      [
        "rece",
        "iving"
      ],
      [
        "inst",
        "ead"
      ],
      [
        "understand",
        "ing"
      ],
      [
        "book",
        "s"
      ],
      [
        "listen",
        "ed"
      ],
      [
        "month",
        "s"
      ],
      [
        "admi",
        "re"
      ],
      [
        "acknowled",
        "ged"
      ],
      [
        "dan",
        "cing"
      ],
      [
        "stre",
        "et"
      ],
      [
        "abo",
        "ve"
      ],
      [
        "fortun",
        "ate"
      ],
      [
        "apo",
        "lo"
      ],
      [
        "wro",
        "te"
      ],
      [
        "a",
        "il"
      ],
      [
        "d",
        "ut"
      ],
      [
        "d",
        "anger"
      ],
      [
        "f",
        "ree"
      ],
      [
        "g",
        "l"
      ],
      [
        "h",
        "u"
      ],
      [
        "m",
        "ad"
      ],
      [
        "p",
        "ard"
      ],
      [
        "p",
        "au"
      ],
      [
        "r",
        "ound"
      ],
      [
        "t",
        "end"
      ],
      [
        "v",
        "ain"
      ],
      [
        "re",
        "jo"
      ],
      [
        "re",
        "present"
      ],
      [
        "re",
        "mark"
      ],
      [
        "or",
        "din"
      ],
      [
        "st",
        "ead"
      ],
      [
        "se",
        "par"
      ],
      [
        "se",
        "cre"
      ],
      [
        "ch",
        "ur"
      ],
      [
        "ch",
        "ance"
      ],
      [
        "ch",
        "use"
      ],
      [
        "de",
        "sir"
      ],
      [
        "al",
        "arm"
      ],
      [
        "con",
        "st"
      ],
      [
        "con",
        "ven"
      ],
      [
        "ab",
        "l"
      ],
      [
        "un",
        "ic"
      ],
      [
        "am",
        "use"
      ],
      [
        "po",
        "sure"
      ],
      [
        "com",
        "es"
      ],
      [
        "te",
        "st"
      ],
      [
        "ac",
        "compl"
      ],
      [
        "pro",
        "du"
      ],
      [
        "im",
        "prud"
      ],
      [
        "ho",
        "ped"
      ],
      [
        "mar",
        "ia"
      ],
      [
        "au",
        "thor"
      ],
      [
        "est",
        "ate"
      ],
      [
        "part",
        "ner"
      ],
      [
        "mor",
        "row"
      ],
      [
        "comm",
        "unic"
      ],
      [
        "lic",
        "ity"
      ],
      [
        "tru",
        "st"
      ],
      [
        "tak",
        "ing"
      ],
      [
        "particular",
        "s"
      ],
      [
        "requ",
        "i"
      ],
      [
        "comfort",
        "able"
      ],
      [
        "concern",
        "ed"
      ],
      [
        "knowled",
        "ge"
      ],
      [
        "equ",
        "ally"
      ],
      [
        "suf",
        "fer"
      ],
      [
        "suf",
        "fici"
      ],
      [
        "wa",
        "it"
      ],
      [
        "ig",
        "ence"
      ],
      [
        "engage",
        "ment"
      ],
      [
        "charm",
        "ing"
      ],
      [
        "prof",
        "ess"
      ],
      [
        "prin",
        "cip"
      ],
      [
        "comprehen",
        "d"
      ],
      [
        "regre",
        "t"
      ],
      [
        "excell",
        "ent"
      ],
      [
        "fal",
        "se"
      ],
      [
        "mad",
        "am"
      ],
      [
        "pard",
        "on"
      ],
      [
        "chur",
        "ch"
      ],
      [
        "conven",
        "i"
      ],
      [
        "b",
        "arr"
      ],
      [
        "e",
        "per"
      ],
      [
        "g",
        "ment"
      ],
      [
        "i",
        "al"
      ],
      [
        "l",
        "am"
      ],
      [
        "l",
        "ate"
      ],
      [
        "n",
        "one"
      ],
      [
        "p",
        "ly"
      ],
      [
        "p",
        "un"
      ],
      [
        "v",
        "ation"
      ],
      [
        "w",
        "his"
      ],
      [
        "in",
        "stru"
      ],
      [
        "at",
        "ive"
      ],
      [
        "st",
        "ri"
      ],
      [
        "for",
        "get"
      ],
      [
        "su",
        "peri"
      ],
      [
        "id",
        "ent"
      ],
      [
        "ro",
        "ad"
      ],
      [
        "am",
        "az"
      ],
      [
        "com",
        "posure"
      ],
      [
        "ti",
        "ly"
      ],
      [
        "ex",
        "am"
      ],
      [
        "if",
        "ul"
      ],
      [
        "pre",
        "v"
      ],
      [
        "pro",
        "pos"
      ],
      [
        "si",
        "x"
      ],
      [
        "ge",
        "st"
      ],
      [
        "fi",
        "cul"
      ],
      [
        "mor",
        "ti"
      ],
      [
        "just",
        "ice"
      ],
      [
        "expect",
        "ation"
      ],
      [
        "satis",
        "f"
      ],
      [
        "wom",
        "en"
      ],
      [
        "delight",
        "ful"
      ],
      [
        "inc",
        "lu"
      ],
      [
        "prob",
        "able"
      ],
      [
        "doub",
        "ted"
      ],
      [
        "resol",
        "ution"
      ],
      [
        "qui",
        "et"
      ],
      [
        "conne",
        "ctions"
      ],
      [
        "bl",
        "ame"
      ],
      [
        "wee",
        "ks"
      ],
      [
        "anx",
        "iety"
      ],
      [
        "circumst",
        "ance"
      ],
      [
        "sum",
        "mer"
      ],
      [
        "remo",
        "ved"
      ],
      [
        "dif",
        "ficul"
      ],
      [
        "intell",
        "igence"
      ],
      [
        "ordin",
        "ary"
      ],
      [
        "barr",
        "ass"
      ],
      [
        "superi",
        "or"
      ],
      [
        "a",
        "ving"
      ],
      [
        "b",
        "ow"
      ],
      [
        "f",
        "ut"
      ],
      [
        "f",
        "all"
      ],
      [
        "o",
        "ld"
      ],
      [
        "r",
        "is"
      ],
      [
        "s",
        "y"
      ],
      [
        "re",
        "pro"
      ],
      [
        "re",
        "ached"
      ],
      [
        "as",
        "sem"
      ],
      [
        "le",
        "aving"
      ],
      [
        "no",
        "body"
      ],
      [
        "li",
        "ar"
      ],
      [
        "ve",
        "red"
      ],
      [
        "ro",
        "wn"
      ],
      [
        "fe",
        "licity"
      ],
      [
        "po",
        "lit"
      ],
      [
        "per",
        "t"
      ],
      [
        "ac",
        "ed"
      ],
      [
        "pre",
        "ju"
      ],
      [
        "pro",
        "spect"
      ],
      [
        "par",
        "son"
      ],
      [
        "ho",
        "ld"
      ],
      [
        "si",
        "ght"
      ],
      [
        "sis",
        "t"
      ],
      [
        "mar",
        "ked"
      ],
      [
        "happ",
        "en"
      ],
      [
        "pleas",
        "e"
      ],
      [
        "est",
        "e"
      ],
      [
        "sent",
        "i"
      ],
      [
        "op",
        "ened"
      ],
      [
        "read",
        "ily"
      ],
      [
        "ful",
        "ness"
      ],
      [
        "sup",
        "port"
      ],
      [
        "pass",
        "ion"
      ],
      [
        "object",
        "ion"
      ],
      [
        "requ",
        "est"
      ],
      [
        "din",
        "ing"
      ],
      [
        "smi",
        "led"
      ],
      [
        "conne",
        "ction"
      ],
      [
        "conne",
        "cted"
      ],
      [
        "persu",
        "ade"
      ],
      [
        "accept",
        "ed"
      ],
      [
        "che",
        "er"
      ],
      [
        "exc",
        "use"
      ],
      [
        "ext",
        "reme"
      ],
      [
        "van",
        "ity"
      ],
      [
        "moti",
        "ve"
      ],
      [
        "evid",
        "ent"
      ],
      [
        "ey",
        "e"
      ],
      [
        "absol",
        "utely"
      ],
      [
        "intent",
        "ion"
      ],
      [
        "pau",
        "se"
      ],
      [
        "fut",
        "ure"
      ],
      [
        "preju",
        "di"
      ],
      [
        "parson",
        "age"
      ],
      [
        "c",
        "ard"
      ],
      [
        "g",
        "ing"
      ],
      [
        "h",
        "int"
      ],
      [
        "i",
        "ced"
      ],
      [
        "l",
        "and"
      ],
      [
        "m",
        "n"
      ],
      [
        "s",
        "co"
      ],
      [
        "t",
        "went"
      ],
      [
        "w",
        "it"
      ],
      [
        "an",
        "gr"
      ],
      [
        "re",
        "ed"
      ],
      [
        "re",
        "sh"
      ],
      [
        "le",
        "ad"
      ],
      [
        "for",
        "got"
      ],
      [
        "de",
        "fect"
      ],
      [
        "de",
        "lic"
      ],
      [
        "de",
        "arest"
      ],
      [
        "fe",
        "red"
      ],
      [
        "un",
        "ited"
      ],
      [
        "ex",
        "cess"
      ],
      [
        "ke",
        "pt"
      ],
      [
        "lo",
        "ss"
      ],
      [
        "ur",
        "day"
      ],
      [
        "pro",
        "ved"
      ],
      [
        "dis",
        "posed"
      ],
      [
        "ind",
        "ifference"
      ],
      [
        "ap",
        "prehen"
      ],
      [
        "ci",
        "ous"
      ],
      [
        "gr",
        "ate"
      ],
      [
        "part",
        "ed"
      ],
      [
        "act",
        "ed"
      ],
      [
        "like",
        "wise"
      ],
      [
        "sat",
        "urday"
      ],
      [
        "str",
        "anger"
      ],
      [
        "side",
        "s"
      ],
      [
        "wr",
        "iting"
      ],
      [
        "car",
        "ol"
      ],
      [
        "affection",
        "ate"
      ],
      [
        "eas",
        "e"
      ],
      [
        "em",
        "barrass"
      ],
      [
        "qui",
        "ck"
      ],
      [
        "prom",
        "ise"
      ],
      [
        "cre",
        "at"
      ],
      [
        "tra",
        "de"
      ],
      [
        "pi",
        "ct"
      ],
      [
        "peri",
        "od"
      ],
      [
        "address",
        "ed"
      ],
      [
        "disappoint",
        "ment"
      ],
      [
        "compan",
        "ion"
      ],
      [
        "resent",
        "ment"
      ],
      [
        "recomm",
        "end"
      ],
      [
        "enquir",
        "ies"
      ],
      [
        "arch",
        "ive"
      ],
      [
        "polit",
        "eness"
      ],
      [
        "prejudi",
        "ce"
      ],
      [
        "twent",
        "y"
      ],
      [
        "angr",
        "y"
      ],
      [
        "carol",
        "ine"
      ],
      [
        "b",
        "ed"
      ],
      [
        "b",
        "ad"
      ],
      [
        "d",
        "ine"
      ],
      [
        "f",
        "ond"
      ],
      [
        "r",
        "ation"
      ],
      [
        "t",
        "one"
      ],
      [
        "an",
        "ti"
      ],
      [
        "en",
        "courage"
      ],
      [
        "is",
        "on"
      ],
      [
        "as",
        "ha"
      ],
      [
        "be",
        "came"
      ],
      [
        "be",
        "sto"
      ],
      [
        "or",
        "g"
      ],
      [
        "ch",
        "ose"
      ],
      [
        "she",
        "w"
      ],
      [
        "de",
        "sp"
      ],
      [
        "su",
        "spect"
      ],
      [
        "al",
        "ter"
      ],
      [
        "ad",
        "vice"
      ],
      [
        "so",
        "lic"
      ],
      [
        "con",
        "vi"
      ],
      [
        "con",
        "sent"
      ],
      [
        "con",
        "clu"
      ],
      [
        "un",
        "i"
      ],
      [
        "com",
        "passion"
      ],
      [
        "ke",
        "eper"
      ],
      [
        "lo",
        "pe"
      ],
      [
        "per",
        "form"
      ],
      [
        "ac",
        "cor"
      ],
      [
        "pro",
        "vid"
      ],
      [
        "dis",
        "grace"
      ],
      [
        "ind",
        "ifferent"
      ],
      [
        "mi",
        "les"
      ],
      [
        "fa",
        "ul"
      ],
      [
        "other",
        "wise"
      ],
      [
        "ap",
        "pli"
      ],
      [
        "char",
        "ge"
      ],
      [
        "gr",
        "ac"
      ],
      [
        "gr",
        "ave"
      ],
      [
        "sha",
        "re"
      ],
      [
        "sc",
        "ene"
      ],
      [
        "read",
        "ing"
      ],
      [
        "house",
        "keeper"
      ],
      [
        "letter",
        "s"
      ],
      [
        "tt",
        "ing"
      ],
      [
        "under",
        "stood"
      ],
      [
        "dist",
        "ance"
      ],
      [
        "lic",
        "ense"
      ],
      [
        "gener",
        "ally"
      ],
      [
        "rel",
        "ated"
      ],
      [
        "mat",
        "er"
      ],
      [
        "spo",
        "ken"
      ],
      [
        "quest",
        "ions"
      ],
      [
        "sho",
        "ck"
      ],
      [
        "toler",
        "able"
      ],
      [
        "luck",
        "y"
      ],
      [
        "dec",
        "ided"
      ],
      [
        "wel",
        "come"
      ],
      [
        "comple",
        "te"
      ],
      [
        "sudden",
        "ly"
      ],
      [
        "extra",
        "ordinary"
      ],
      [
        "ignor",
        "ant"
      ],
      [
        "inf",
        "lu"
      ],
      [
        "asha",
        "med"
      ],
      [
        "convi",
        "ction"
      ],
      [
        "c",
        "ure"
      ],
      [
        "d",
        "om"
      ],
      [
        "d",
        "ri"
      ],
      [
        "f",
        "urn"
      ],
      [
        "l",
        "an"
      ],
      [
        "l",
        "or"
      ],
      [
        "m",
        "ine"
      ],
      [
        "n",
        "on"
      ],
      [
        "r",
        "or"
      ],
      [
        "s",
        "it"
      ],
      [
        "s",
        "im"
      ],
      [
        "t",
        "re"
      ],
      [
        "t",
        "ried"
      ],
      [
        "w",
        "inter"
      ],
      [
        "an",
        "a"
      ],
      [
        "re",
        "g"
      ],
      [
        "re",
        "new"
      ],
      [
        "ed",
        "u"
      ],
      [
        "ar",
        "t"
      ],
      [
        "or",
        "der"
      ],
      [
        "ha",
        "ll"
      ],
      [
        "no",
        "ve"
      ],
      [
        "se",
        "ated"
      ],
      [
        "li",
        "ved"
      ],
      [
        "ve",
        "x"
      ],
      [
        "con",
        "ject"
      ],
      [
        "con",
        "desc"
      ],
      [
        "fe",
        "e"
      ],
      [
        "un",
        "d"
      ],
      [
        "es",
        "ca"
      ],
      [
        "lo",
        "d"
      ],
      [
        "dis",
        "play"
      ],
      [
        "af",
        "ford"
      ],
      [
        "ind",
        "ul"
      ],
      [
        "fa",
        "ct"
      ],
      [
        "tr",
        "an"
      ],
      [
        "spe",
        "e"
      ],
      [
        "est",
        "abl"
      ],
      [
        "say",
        "s"
      ],
      [
        "sent",
        "ence"
      ],
      [
        "add",
        "ition"
      ],
      [
        "belie",
        "f"
      ],
      [
        "gi",
        "ana"
      ],
      [
        "um",
        "ph"
      ],
      [
        "sup",
        "posing"
      ],
      [
        "aw",
        "are"
      ],
      [
        "wr",
        "ong"
      ],
      [
        "gener",
        "ous"
      ],
      [
        "une",
        "as"
      ],
      [
        "call",
[...]
